unsigned char model_tflite[] = {
  0x1c, 0x00, 0x00, 0x00, 0x54, 0x46, 0x4c, 0x33, 0x14, 0x00, 0x20, 0x00,
  0x1c, 0x00, 0x18, 0x00, 0x14, 0x00, 0x10, 0x00, 0x0c, 0x00, 0x00, 0x00,
  0x08, 0x00, 0x04, 0x00, 0x14, 0x00, 0x00, 0x00, 0x1c, 0x00, 0x00, 0x00,
  0x88, 0x00, 0x00, 0x00, 0xe0, 0x00, 0x00, 0x00, 0xdc, 0x0a, 0x00, 0x00,
  0xec, 0x0a, 0x00, 0x00, 0x98, 0x33, 0x00, 0x00, 0x03, 0x00, 0x00, 0x00,
  0x01, 0x00, 0x00, 0x00, 0x04, 0x00, 0x00, 0x00, 0xd6, 0xeb, 0xff, 0xff,
  0x0c, 0x00, 0x00, 0x00, 0x1c, 0x00, 0x00, 0x00, 0x3c, 0x00, 0x00, 0x00,
  0x0f, 0x00, 0x00, 0x00, 0x73, 0x65, 0x72, 0x76, 0x69, 0x6e, 0x67, 0x5f,
  0x64, 0x65, 0x66, 0x61, 0x75, 0x6c, 0x74, 0x00, 0x01, 0x00, 0x00, 0x00,
  0x04, 0x00, 0x00, 0x00, 0x94, 0xff, 0xff, 0xff, 0x45, 0x00, 0x00, 0x00,
  0x04, 0x00, 0x00, 0x00, 0x08, 0x00, 0x00, 0x00, 0x6f, 0x75, 0x74, 0x70,
  0x75, 0x74, 0x5f, 0x30, 0x00, 0x00, 0x00, 0x00, 0x01, 0x00, 0x00, 0x00,
  0x04, 0x00, 0x00, 0x00, 0x6a, 0xec, 0xff, 0xff, 0x04, 0x00, 0x00, 0x00,
  0x0b, 0x00, 0x00, 0x00, 0x69, 0x6e, 0x70, 0x75, 0x74, 0x5f, 0x6c, 0x61,
  0x79, 0x65, 0x72, 0x00, 0x02, 0x00, 0x00, 0x00, 0x34, 0x00, 0x00, 0x00,
  0x04, 0x00, 0x00, 0x00, 0xdc, 0xff, 0xff, 0xff, 0x48, 0x00, 0x00, 0x00,
  0x04, 0x00, 0x00, 0x00, 0x13, 0x00, 0x00, 0x00, 0x43, 0x4f, 0x4e, 0x56,
  0x45, 0x52, 0x53, 0x49, 0x4f, 0x4e, 0x5f, 0x4d, 0x45, 0x54, 0x41, 0x44,
  0x41, 0x54, 0x41, 0x00, 0x08, 0x00, 0x0c, 0x00, 0x08, 0x00, 0x04, 0x00,
  0x08, 0x00, 0x00, 0x00, 0x47, 0x00, 0x00, 0x00, 0x04, 0x00, 0x00, 0x00,
  0x13, 0x00, 0x00, 0x00, 0x6d, 0x69, 0x6e, 0x5f, 0x72, 0x75, 0x6e, 0x74,
  0x69, 0x6d, 0x65, 0x5f, 0x76, 0x65, 0x72, 0x73, 0x69, 0x6f, 0x6e, 0x00,
  0x49, 0x00, 0x00, 0x00, 0xf8, 0x09, 0x00, 0x00, 0xf0, 0x09, 0x00, 0x00,
  0xc0, 0x09, 0x00, 0x00, 0xb0, 0x07, 0x00, 0x00, 0x60, 0x07, 0x00, 0x00,
  0x50, 0x03, 0x00, 0x00, 0x00, 0x03, 0x00, 0x00, 0xd0, 0x02, 0x00, 0x00,
  0xbc, 0x02, 0x00, 0x00, 0xa8, 0x02, 0x00, 0x00, 0x94, 0x02, 0x00, 0x00,
  0x78, 0x02, 0x00, 0x00, 0x64, 0x02, 0x00, 0x00, 0x5c, 0x02, 0x00, 0x00,
  0x54, 0x02, 0x00, 0x00, 0x4c, 0x02, 0x00, 0x00, 0x44, 0x02, 0x00, 0x00,
  0x3c, 0x02, 0x00, 0x00, 0x34, 0x02, 0x00, 0x00, 0x2c, 0x02, 0x00, 0x00,
  0x24, 0x02, 0x00, 0x00, 0x1c, 0x02, 0x00, 0x00, 0x14, 0x02, 0x00, 0x00,
  0x0c, 0x02, 0x00, 0x00, 0x04, 0x02, 0x00, 0x00, 0xfc, 0x01, 0x00, 0x00,
  0xf4, 0x01, 0x00, 0x00, 0xec, 0x01, 0x00, 0x00, 0xe4, 0x01, 0x00, 0x00,
  0xdc, 0x01, 0x00, 0x00, 0xd4, 0x01, 0x00, 0x00, 0xcc, 0x01, 0x00, 0x00,
  0xc4, 0x01, 0x00, 0x00, 0xbc, 0x01, 0x00, 0x00, 0xb4, 0x01, 0x00, 0x00,
  0xac, 0x01, 0x00, 0x00, 0xa4, 0x01, 0x00, 0x00, 0x9c, 0x01, 0x00, 0x00,
  0x94, 0x01, 0x00, 0x00, 0x8c, 0x01, 0x00, 0x00, 0x84, 0x01, 0x00, 0x00,
  0x7c, 0x01, 0x00, 0x00, 0x74, 0x01, 0x00, 0x00, 0x6c, 0x01, 0x00, 0x00,
  0x64, 0x01, 0x00, 0x00, 0x5c, 0x01, 0x00, 0x00, 0x54, 0x01, 0x00, 0x00,
  0x4c, 0x01, 0x00, 0x00, 0x44, 0x01, 0x00, 0x00, 0x3c, 0x01, 0x00, 0x00,
  0x34, 0x01, 0x00, 0x00, 0x2c, 0x01, 0x00, 0x00, 0x24, 0x01, 0x00, 0x00,
  0x1c, 0x01, 0x00, 0x00, 0x14, 0x01, 0x00, 0x00, 0x0c, 0x01, 0x00, 0x00,
  0x04, 0x01, 0x00, 0x00, 0xfc, 0x00, 0x00, 0x00, 0xf4, 0x00, 0x00, 0x00,
  0xec, 0x00, 0x00, 0x00, 0xe4, 0x00, 0x00, 0x00, 0xdc, 0x00, 0x00, 0x00,
  0xd4, 0x00, 0x00, 0x00, 0xcc, 0x00, 0x00, 0x00, 0xc4, 0x00, 0x00, 0x00,
  0xbc, 0x00, 0x00, 0x00, 0xb4, 0x00, 0x00, 0x00, 0xac, 0x00, 0x00, 0x00,
  0xa4, 0x00, 0x00, 0x00, 0x9c, 0x00, 0x00, 0x00, 0x94, 0x00, 0x00, 0x00,
  0x74, 0x00, 0x00, 0x00, 0x04, 0x00, 0x00, 0x00, 0x06, 0xee, 0xff, 0xff,
  0x04, 0x00, 0x00, 0x00, 0x60, 0x00, 0x00, 0x00, 0x10, 0x00, 0x00, 0x00,
  0x00, 0x00, 0x00, 0x00, 0x08, 0x00, 0x0e, 0x00, 0x08, 0x00, 0x04, 0x00,
  0x08, 0x00, 0x00, 0x00, 0x10, 0x00, 0x00, 0x00, 0x24, 0x00, 0x00, 0x00,
  0x00, 0x00, 0x06, 0x00, 0x08, 0x00, 0x04, 0x00, 0x06, 0x00, 0x00, 0x00,
  0x04, 0x00, 0x00, 0x00, 0x00, 0x00, 0x00, 0x00, 0x0c, 0x00, 0x18, 0x00,
  0x14, 0x00, 0x10, 0x00, 0x0c, 0x00, 0x04, 0x00, 0x0c, 0x00, 0x00, 0x00,
  0xba, 0x22, 0x09, 0x68, 0x33, 0xba, 0xf7, 0x7a, 0x02, 0x00, 0x00, 0x00,
  0x02, 0x00, 0x00, 0x00, 0x04, 0x00, 0x00, 0x00, 0x06, 0x00, 0x00, 0x00,
  0x32, 0x2e, 0x31, 0x39, 0x2e, 0x30, 0x00, 0x00, 0x72, 0xee, 0xff, 0xff,
  0x04, 0x00, 0x00, 0x00, 0x10, 0x00, 0x00, 0x00, 0x31, 0x2e, 0x31, 0x34,
  0x2e, 0x30, 0x00, 0x00, 0x00, 0x00, 0x00, 0x00, 0x00, 0x00, 0x00, 0x00,
  0xb8, 0xce, 0xff, 0xff, 0xbc, 0xce, 0xff, 0xff, 0xc0, 0xce, 0xff, 0xff,
  0xc4, 0xce, 0xff, 0xff, 0xc8, 0xce, 0xff, 0xff, 0xcc, 0xce, 0xff, 0xff,
  0xd0, 0xce, 0xff, 0xff, 0xd4, 0xce, 0xff, 0xff, 0xd8, 0xce, 0xff, 0xff,
  0xdc, 0xce, 0xff, 0xff, 0xe0, 0xce, 0xff, 0xff, 0xe4, 0xce, 0xff, 0xff,
  0xe8, 0xce, 0xff, 0xff, 0xec, 0xce, 0xff, 0xff, 0xf0, 0xce, 0xff, 0xff,
  0xf4, 0xce, 0xff, 0xff, 0xf8, 0xce, 0xff, 0xff, 0xfc, 0xce, 0xff, 0xff,
  0x00, 0xcf, 0xff, 0xff, 0x04, 0xcf, 0xff, 0xff, 0x08, 0xcf, 0xff, 0xff,
  0x0c, 0xcf, 0xff, 0xff, 0x10, 0xcf, 0xff, 0xff, 0x14, 0xcf, 0xff, 0xff,
  0x18, 0xcf, 0xff, 0xff, 0x1c, 0xcf, 0xff, 0xff, 0x20, 0xcf, 0xff, 0xff,
  0x24, 0xcf, 0xff, 0xff, 0x28, 0xcf, 0xff, 0xff, 0x2c, 0xcf, 0xff, 0xff,
  0x30, 0xcf, 0xff, 0xff, 0x34, 0xcf, 0xff, 0xff, 0x38, 0xcf, 0xff, 0xff,
  0x3c, 0xcf, 0xff, 0xff, 0x40, 0xcf, 0xff, 0xff, 0x44, 0xcf, 0xff, 0xff,
  0x48, 0xcf, 0xff, 0xff, 0x4c, 0xcf, 0xff, 0xff, 0x50, 0xcf, 0xff, 0xff,
  0x54, 0xcf, 0xff, 0xff, 0x58, 0xcf, 0xff, 0xff, 0x5c, 0xcf, 0xff, 0xff,
  0x60, 0xcf, 0xff, 0xff, 0x64, 0xcf, 0xff, 0xff, 0x68, 0xcf, 0xff, 0xff,
  0x6c, 0xcf, 0xff, 0xff, 0x70, 0xcf, 0xff, 0xff, 0x74, 0xcf, 0xff, 0xff,
  0x78, 0xcf, 0xff, 0xff, 0x7c, 0xcf, 0xff, 0xff, 0x80, 0xcf, 0xff, 0xff,
  0x84, 0xcf, 0xff, 0xff, 0x88, 0xcf, 0xff, 0xff, 0x8c, 0xcf, 0xff, 0xff,
  0x90, 0xcf, 0xff, 0xff, 0x94, 0xcf, 0xff, 0xff, 0x98, 0xcf, 0xff, 0xff,
  0x9c, 0xcf, 0xff, 0xff, 0x76, 0xef, 0xff, 0xff, 0x04, 0x00, 0x00, 0x00,
  0x04, 0x00, 0x00, 0x00, 0x01, 0x00, 0x00, 0x00, 0x86, 0xef, 0xff, 0xff,
  0x04, 0x00, 0x00, 0x00, 0x0c, 0x00, 0x00, 0x00, 0x01, 0x00, 0x00, 0x00,
  0x00, 0x00, 0x00, 0x00, 0x02, 0x00, 0x00, 0x00, 0x9e, 0xef, 0xff, 0xff,
  0x04, 0x00, 0x00, 0x00, 0x04, 0x00, 0x00, 0x00, 0x00, 0x00, 0x00, 0x00,
  0xae, 0xef, 0xff, 0xff, 0x04, 0x00, 0x00, 0x00, 0x04, 0x00, 0x00, 0x00,
  0x10, 0x00, 0x00, 0x00, 0xbe, 0xef, 0xff, 0xff, 0x04, 0x00, 0x00, 0x00,
  0x04, 0x00, 0x00, 0x00, 0x01, 0x5c, 0x28, 0x3c, 0xce, 0xef, 0xff, 0xff,
  0x04, 0x00, 0x00, 0x00, 0x20, 0x00, 0x00, 0x00, 0xa7, 0x27, 0xa8, 0xbd,
  0x86, 0x7d, 0x52, 0xbc, 0xe9, 0xe8, 0x0a, 0x3d, 0x7d, 0xbe, 0x2a, 0x3c,
  0x0a, 0x58, 0x16, 0x3c, 0x60, 0x19, 0x94, 0x3c, 0x21, 0x13, 0x60, 0xbc,
  0x7e, 0xba, 0x9d, 0x3c, 0xfa, 0xef, 0xff, 0xff, 0x04, 0x00, 0x00, 0x00,
  0x40, 0x00, 0x00, 0x00, 0x01, 0x29, 0x0a, 0x3d, 0x40, 0xc1, 0x21, 0xbd,
  0xb7, 0xe6, 0x1b, 0xbe, 0x1a, 0xf0, 0x10, 0xbd, 0xe0, 0xbf, 0x17, 0xbb,
  0x09, 0x86, 0xc9, 0xbc, 0x32, 0x1d, 0xf5, 0xbc, 0xb9, 0x18, 0xd1, 0x3c,
  0x48, 0xd3, 0xf0, 0xbc, 0x8d, 0x67, 0x19, 0x3d, 0xdd, 0xb6, 0x3f, 0x3d,
  0xda, 0xf9, 0x32, 0x3c, 0xe7, 0xff, 0x04, 0x3d, 0xb0, 0xca, 0x2e, 0x3d,
  0xd6, 0xd4, 0xb3, 0x3c, 0x16, 0x60, 0x52, 0x3d, 0x46, 0xf0, 0xff, 0xff,
  0x04, 0x00, 0x00, 0x00, 0x00, 0x04, 0x00, 0x00, 0xa4, 0x28, 0xc9, 0xbd,
  0xa2, 0xe2, 0xfd, 0xbd, 0xf8, 0xee, 0x27, 0xbe, 0xc2, 0xcb, 0x96, 0xbe,
  0xe7, 0x2e, 0x9e, 0x3d, 0xdf, 0x0e, 0x3a, 0xbf, 0x3f, 0x0c, 0x8f, 0xbe,
  0xc4, 0x37, 0x96, 0x3d, 0x37, 0x04, 0xa5, 0x3e, 0x70, 0xef, 0x5b, 0xbe,
  0x74, 0x99, 0x9f, 0xbc, 0x3f, 0xd0, 0x03, 0x3e, 0x3c, 0x6e, 0x0a, 0xbd,
  0x95, 0x6b, 0x64, 0xbe, 0xfb, 0xe6, 0xd2, 0xbd, 0x4d, 0x37, 0x20, 0xbe,
  0xbf, 0x80, 0xc3, 0x3e, 0x04, 0xf1, 0x70, 0xbd, 0xfb, 0x5a, 0x87, 0xbe,
  0x8c, 0xe7, 0x8a, 0x3e, 0xab, 0x5f, 0x1d, 0x3e, 0xaf, 0xe5, 0x5c, 0x3e,
  0xcc, 0x6c, 0x41, 0xbe, 0x82, 0x8b, 0x3e, 0x3d, 0x14, 0x33, 0x9d, 0x3e,
  0xc6, 0x46, 0x38, 0xbd, 0x86, 0xdf, 0x09, 0xbe, 0x7b, 0x60, 0xe8, 0x3d,
  0xde, 0x75, 0xaa, 0x3e, 0xd2, 0x88, 0x28, 0x3e, 0x3d, 0x08, 0xa6, 0xbd,
  0x74, 0x28, 0x10, 0xbf, 0x13, 0x5b, 0xe4, 0x3d, 0x16, 0xfe, 0x75, 0xbe,
  0x42, 0xe9, 0xaf, 0x3e, 0x12, 0xc4, 0xfc, 0x3e, 0x8d, 0x00, 0x00, 0x3e,
  0xd1, 0x5f, 0xcf, 0xbb, 0x60, 0x3c, 0x57, 0xbe, 0xe8, 0x3a, 0x24, 0xbd,
  0x3b, 0x56, 0xa2, 0x3d, 0x2a, 0x9d, 0x55, 0xbe, 0x61, 0xb6, 0x8a, 0xbe,
  0x94, 0xfb, 0x27, 0x3d, 0xc8, 0x54, 0x09, 0x3d, 0x4d, 0x71, 0xa3, 0xbe,
  0xf1, 0x3d, 0x52, 0xbe, 0x25, 0x16, 0xc8, 0x3e, 0x6e, 0xe0, 0x8b, 0xbe,
  0x34, 0xc8, 0x5c, 0xbe, 0xe8, 0x51, 0x71, 0xbe, 0xd0, 0x72, 0x76, 0x3e,
  0x75, 0x1f, 0x3b, 0xbe, 0xbf, 0xfb, 0x70, 0x3d, 0x4e, 0x62, 0x86, 0x3c,
  0x5f, 0xd3, 0x59, 0xbe, 0xf2, 0xe0, 0x09, 0xbe, 0x37, 0x68, 0x98, 0xbe,
  0xfa, 0x3f, 0x9c, 0xbe, 0x06, 0xd3, 0x18, 0x3e, 0xeb, 0xfb, 0xd7, 0xbe,
  0x77, 0xd2, 0x42, 0x3d, 0xb1, 0x70, 0xea, 0x3e, 0x7c, 0x23, 0x6c, 0xbe,
  0xea, 0x3b, 0xc5, 0x3d, 0x8d, 0x3d, 0x5c, 0xbe, 0xf6, 0xd7, 0x05, 0x3e,
  0x3a, 0x9b, 0xa4, 0x3d, 0xb7, 0x3b, 0x1e, 0xbe, 0xc3, 0xe5, 0x40, 0xbe,
  0xd2, 0x55, 0xab, 0x3d, 0xe3, 0xed, 0x1d, 0xbf, 0x7a, 0x77, 0x40, 0x3e,
  0x65, 0x0f, 0x62, 0xbc, 0xd1, 0x80, 0xae, 0x3e, 0x2e, 0x1d, 0x93, 0xbe,
  0x7c, 0x34, 0x43, 0xbc, 0x65, 0x52, 0x43, 0x3e, 0xfc, 0x34, 0xcd, 0xbb,
  0xd3, 0x94, 0xa1, 0xbd, 0x90, 0x70, 0xc4, 0xbd, 0xfe, 0x54, 0x27, 0x3e,
  0x74, 0xd0, 0x6c, 0xbe, 0x7b, 0x3d, 0xd3, 0x3e, 0x5e, 0xd1, 0x06, 0x3e,
  0x76, 0xd4, 0x27, 0xbe, 0x08, 0x08, 0x17, 0xbe, 0x06, 0x98, 0x10, 0x3e,
  0x9a, 0xaa, 0xec, 0xbe, 0x9c, 0x56, 0x05, 0xbe, 0xfd, 0xf2, 0xf7, 0x3e,
  0x07, 0x8d, 0xa3, 0xbc, 0x55, 0x78, 0x04, 0xbe, 0x0e, 0x34, 0x41, 0xbe,
  0xfc, 0x95, 0x47, 0xbe, 0x1d, 0xf0, 0x2e, 0xbe, 0x3d, 0x4f, 0x00, 0x3f,
  0xbe, 0x1e, 0xcf, 0x3d, 0x8d, 0xe4, 0xbd, 0x3d, 0x4b, 0xa1, 0x00, 0xbe,
  0x84, 0xa7, 0xf8, 0x3e, 0xaa, 0x76, 0x24, 0xbc, 0x4c, 0x8e, 0x81, 0x3e,
  0xa3, 0xd6, 0x02, 0xbb, 0xb9, 0x22, 0x26, 0xbd, 0xed, 0x08, 0x0c, 0xbf,
  0x20, 0xfd, 0x26, 0xbb, 0xac, 0x7b, 0x5f, 0xbe, 0x05, 0xd9, 0x3c, 0xbe,
  0x85, 0x5d, 0x80, 0xbb, 0x08, 0x4c, 0x80, 0x3e, 0x67, 0xf2, 0x7d, 0x3d,
  0xa1, 0x46, 0xa3, 0x3d, 0x56, 0x0b, 0xe8, 0xbe, 0xdb, 0x67, 0x51, 0x3d,
  0x77, 0xf6, 0x2e, 0xbd, 0xc9, 0xe3, 0xb6, 0x3e, 0x10, 0xcd, 0x0b, 0xbe,
  0x48, 0x55, 0x94, 0x3d, 0xaa, 0xee, 0x3c, 0xbe, 0xdd, 0xa5, 0xdb, 0xbe,
  0xf1, 0xfc, 0xe5, 0x3e, 0x1e, 0x4b, 0x31, 0xbe, 0xc6, 0x0a, 0x6c, 0x3d,
  0x88, 0x0b, 0xfe, 0x3d, 0x55, 0x65, 0x62, 0xbe, 0xd3, 0xb5, 0x1d, 0x3e,
  0x29, 0xea, 0x3f, 0xbe, 0x8a, 0x14, 0x82, 0xbe, 0xcb, 0x20, 0xf2, 0xbe,
  0x56, 0xa4, 0x87, 0x3e, 0x14, 0x22, 0xf1, 0x3c, 0x9c, 0xe3, 0xac, 0xbd,
  0xb9, 0x3c, 0x01, 0x3e, 0xec, 0xb0, 0x13, 0xbe, 0xbb, 0x0e, 0x06, 0x3f,
  0xba, 0x62, 0xaa, 0xbc, 0x7e, 0xbc, 0x41, 0xbe, 0x1b, 0x39, 0xc9, 0x3d,
  0xa9, 0x61, 0xc7, 0xbe, 0x13, 0xab, 0x8e, 0x3d, 0xfc, 0xbe, 0x36, 0x3e,
  0xc5, 0x9a, 0x37, 0x3e, 0x09, 0xc1, 0x6c, 0xbe, 0x7b, 0x88, 0xaf, 0x3b,
  0x89, 0xe9, 0x38, 0x3e, 0x98, 0xaa, 0x7a, 0xbe, 0x8f, 0x89, 0x6d, 0x3e,
  0x46, 0xf7, 0x24, 0x3e, 0xf5, 0x44, 0x2d, 0xbe, 0x15, 0xa4, 0x91, 0xbe,
  0x34, 0xe7, 0x42, 0x3d, 0x07, 0xf4, 0xbc, 0xbd, 0x48, 0x42, 0x5c, 0x3e,
  0x22, 0x65, 0xcb, 0xbe, 0xf3, 0xe6, 0x00, 0xbf, 0xf2, 0x6c, 0x4b, 0xbe,
  0xc8, 0xb8, 0xaa, 0x3e, 0x91, 0xc4, 0xce, 0xbd, 0x32, 0x45, 0x21, 0x3e,
  0xdd, 0x16, 0xf6, 0x3e, 0x27, 0xb4, 0x13, 0xbe, 0xb3, 0xcd, 0xdc, 0xbd,
  0xd6, 0xe9, 0x14, 0xbd, 0xfb, 0x4f, 0x00, 0xbe, 0xcb, 0x5d, 0x20, 0x3e,
  0xd4, 0x4c, 0x9e, 0xbe, 0x11, 0x5a, 0x2f, 0x3e, 0xee, 0x68, 0x11, 0x3e,
  0x8b, 0xac, 0x8c, 0x3e, 0x37, 0x79, 0x51, 0x3e, 0xd7, 0x46, 0x4a, 0x3e,
  0xdd, 0xcf, 0xc2, 0xbe, 0x72, 0xf6, 0x92, 0xbd, 0x05, 0x9c, 0x52, 0x3e,
  0x05, 0x22, 0x0c, 0x3e, 0x5a, 0x8e, 0x1b, 0x3c, 0x11, 0xb4, 0xa0, 0xbd,
  0x6c, 0xc7, 0xf2, 0x3d, 0x97, 0x38, 0xfb, 0xbe, 0x7d, 0xf4, 0xed, 0x3c,
  0xae, 0xde, 0x85, 0x3e, 0x27, 0xfc, 0xfa, 0xbe, 0xab, 0x2f, 0x67, 0xbe,
  0x7c, 0xa2, 0x88, 0xbe, 0xf8, 0x18, 0xfc, 0xbd, 0x1f, 0x76, 0x31, 0xbd,
  0xe1, 0xd6, 0x59, 0x3d, 0xe7, 0xf6, 0x8e, 0xbe, 0xe7, 0x69, 0xdf, 0x3d,
  0x4c, 0x8e, 0xae, 0xbe, 0xba, 0x21, 0x7b, 0xbd, 0x44, 0x91, 0x72, 0xbe,
  0x5f, 0xb1, 0xbe, 0x3b, 0x59, 0x02, 0x0a, 0x3d, 0x99, 0xd1, 0x9a, 0x3d,
  0x51, 0x69, 0xac, 0x3e, 0x25, 0xf0, 0x8b, 0xbd, 0xfb, 0x22, 0xbe, 0xbe,
  0xc6, 0x0c, 0x63, 0xbd, 0x24, 0x04, 0x07, 0xbd, 0x0e, 0xb8, 0x85, 0xbd,
  0x93, 0xd5, 0x27, 0x3e, 0x2f, 0xa3, 0xa2, 0x3e, 0x93, 0x96, 0x85, 0x3e,
  0x98, 0x7f, 0xed, 0x3e, 0xba, 0xb9, 0xbe, 0x3e, 0x17, 0x80, 0x8b, 0x3e,
  0x12, 0x95, 0xbe, 0x3e, 0x18, 0x7f, 0x8a, 0x3e, 0x75, 0x55, 0xc8, 0x3e,
  0xc9, 0x6e, 0x3d, 0xbd, 0x3c, 0x45, 0x8b, 0xbe, 0xfc, 0x70, 0x65, 0xbe,
  0x5a, 0x38, 0x0c, 0xbe, 0x7a, 0x4f, 0xca, 0x3d, 0x09, 0x29, 0xc1, 0xbe,
  0xc2, 0x25, 0x61, 0xbd, 0xd6, 0x5a, 0x06, 0xbe, 0x8e, 0x80, 0x9d, 0x3c,
  0x12, 0xbb, 0x30, 0x3e, 0x7b, 0xb8, 0xfe, 0x3d, 0x44, 0xb6, 0x68, 0x3e,
  0x1a, 0xb5, 0x23, 0xbe, 0x1a, 0x02, 0xd1, 0x3d, 0x7e, 0x56, 0x45, 0xbe,
  0xf4, 0x3a, 0x2a, 0x3e, 0x9e, 0xe8, 0x00, 0x3e, 0x9a, 0x4e, 0x5f, 0x3d,
  0x8c, 0x33, 0x71, 0xbe, 0x3c, 0x09, 0xc2, 0x3e, 0x0a, 0x7a, 0x49, 0x3e,
  0x8f, 0x40, 0x75, 0xbd, 0xbc, 0xcf, 0x4b, 0x3c, 0x8e, 0xa5, 0x0c, 0xbb,
  0xca, 0xf4, 0xe2, 0x3e, 0x46, 0x32, 0x9c, 0xbe, 0xce, 0xb7, 0x01, 0x3f,
  0xd6, 0x5f, 0x98, 0xbe, 0x06, 0x5f, 0x90, 0xbb, 0xbf, 0xf1, 0x6d, 0x3e,
  0x26, 0xd1, 0xb9, 0xbe, 0x98, 0x56, 0x00, 0xbf, 0x8c, 0xc2, 0x0c, 0xbe,
  0xd6, 0xfb, 0x87, 0xbe, 0x64, 0x9c, 0x21, 0xbd, 0xb5, 0xb7, 0x7d, 0x3d,
  0x4a, 0x21, 0x96, 0x3a, 0xe5, 0xe0, 0x97, 0xbe, 0x10, 0xb1, 0x81, 0xbe,
  0x01, 0x24, 0x05, 0x3d, 0x20, 0xa2, 0x28, 0x3d, 0x1d, 0xed, 0xb9, 0x3e,
  0xd5, 0x46, 0x52, 0x3d, 0x74, 0x81, 0xcc, 0xbd, 0x17, 0xaf, 0xe7, 0x3e,
  0x52, 0xf4, 0xff, 0xff, 0x04, 0x00, 0x00, 0x00, 0x40, 0x00, 0x00, 0x00,
  0x4b, 0x25, 0xbd, 0xbe, 0x9f, 0xfc, 0xc5, 0xbe, 0x58, 0x12, 0xcc, 0xbe,
  0x13, 0xb2, 0x92, 0xbe, 0x85, 0x3a, 0xb9, 0x3d, 0xdc, 0x5c, 0xe3, 0x3d,
  0x6d, 0x88, 0xbe, 0x3e, 0x2b, 0x8a, 0x8c, 0xbe, 0xd5, 0xde, 0x03, 0xbe,
  0x18, 0x0c, 0xbc, 0x3e, 0x18, 0x09, 0x06, 0xbf, 0xe6, 0x7d, 0xba, 0xbd,
  0x7a, 0x47, 0x0d, 0xbe, 0xdb, 0x6b, 0x80, 0x3d, 0x13, 0xc7, 0xa8, 0xbe,
  0x99, 0x8d, 0xa7, 0x3e, 0x9e, 0xf4, 0xff, 0xff, 0x04, 0x00, 0x00, 0x00,
  0x00, 0x02, 0x00, 0x00, 0x36, 0x89, 0xad, 0x3e, 0xf6, 0x6c, 0x15, 0xbd,
  0x5c, 0xc5, 0xf3, 0xbe, 0x8a, 0xfe, 0xca, 0x3e, 0xbf, 0xa8, 0xbf, 0xbe,
  0x80, 0x61, 0x90, 0xbe, 0x1c, 0xf5, 0x90, 0xbe, 0xd1, 0xaf, 0x03, 0xbf,
  0x72, 0x17, 0xa1, 0x3e, 0xe7, 0x56, 0x9d, 0xbe, 0xd0, 0x37, 0x53, 0x3e,
  0xc1, 0xde, 0x91, 0x3e, 0x34, 0x41, 0xd5, 0x3d, 0x94, 0x26, 0x90, 0x3e,
  0x28, 0x22, 0xc0, 0xbe, 0x30, 0x94, 0xae, 0x3e, 0x83, 0xd1, 0x0e, 0xbe,
  0x00, 0xab, 0x3b, 0x3e, 0x4b, 0x20, 0x3e, 0xbe, 0x16, 0x9e, 0x66, 0x3d,
  0xf7, 0x37, 0xf9, 0xbe, 0xb1, 0x49, 0x55, 0x3d, 0x38, 0x55, 0x92, 0x3e,
  0x05, 0x96, 0xc3, 0xbe, 0xa3, 0xcc, 0x5b, 0x3e, 0x96, 0x73, 0x32, 0xbe,
  0x20, 0x54, 0x39, 0xbe, 0x0a, 0x45, 0xa7, 0xbe, 0xea, 0x22, 0xb1, 0xbe,
  0x19, 0x0b, 0x73, 0x3e, 0x78, 0x2d, 0x20, 0xbd, 0x00, 0x4a, 0x92, 0xbd,
  0x3e, 0x0c, 0x33, 0xbe, 0x1a, 0xf7, 0x0f, 0xbe, 0x4a, 0xfb, 0x9e, 0x3e,
  0xab, 0x6a, 0x4f, 0x3e, 0x55, 0xf0, 0x41, 0xbe, 0xb6, 0x6e, 0xf6, 0xbe,
  0x5d, 0x81, 0xf9, 0xbe, 0xc1, 0x17, 0x97, 0x3d, 0x1c, 0x83, 0x26, 0x3e,
  0x27, 0xad, 0xc8, 0x3e, 0x89, 0xa5, 0xd5, 0xbe, 0x03, 0xce, 0xf0, 0x3e,
  0x4b, 0x87, 0x44, 0x3e, 0x32, 0x4b, 0x7d, 0x3d, 0x15, 0xfc, 0xfa, 0x3d,
  0x52, 0x35, 0x08, 0x3d, 0x15, 0x3f, 0xb4, 0xbe, 0xa9, 0x02, 0x88, 0x3e,
  0x25, 0xde, 0x44, 0xbe, 0xcf, 0x64, 0xce, 0xbe, 0x60, 0x5f, 0xc0, 0x3e,
  0x6c, 0x16, 0x7f, 0xbe, 0xe7, 0xbe, 0x69, 0x3e, 0x10, 0xb3, 0xef, 0xbe,
  0x2d, 0x5a, 0xc8, 0x3c, 0x31, 0xa8, 0x42, 0x3e, 0x34, 0x73, 0x51, 0x3c,
  0x04, 0xb4, 0x77, 0x3e, 0x66, 0x38, 0x39, 0x3e, 0x76, 0xa8, 0x2b, 0x3e,
  0xd4, 0xd2, 0xcc, 0xbe, 0x3e, 0xb9, 0x58, 0x3e, 0x2f, 0x1e, 0xaf, 0xbe,
  0xb6, 0xff, 0xcd, 0xbe, 0xf1, 0x1f, 0x04, 0xbe, 0x01, 0xd4, 0xe4, 0xbd,
  0xfc, 0x40, 0xe6, 0xbe, 0x19, 0x1a, 0xd1, 0xbe, 0x42, 0x5b, 0xd1, 0x3e,
  0x7c, 0x70, 0xb3, 0x3e, 0x26, 0x60, 0x4b, 0x3e, 0xf6, 0xc3, 0x6e, 0xbe,
  0xd0, 0x69, 0xaa, 0x3e, 0xda, 0xb7, 0xb4, 0xbd, 0xe7, 0xdb, 0xd8, 0x3e,
  0x79, 0x6f, 0xcb, 0xbe, 0xcc, 0x0c, 0xc4, 0xbe, 0x6f, 0x29, 0xce, 0x3e,
  0xc9, 0x85, 0x9e, 0x3d, 0x6e, 0x9e, 0xdd, 0x3e, 0x0e, 0x72, 0xdd, 0xbe,
  0xb7, 0x86, 0x33, 0x3e, 0x64, 0xd8, 0x9e, 0x3e, 0x4c, 0x38, 0x5c, 0x3b,
  0x51, 0x5e, 0xf3, 0x3e, 0x0c, 0x84, 0x9e, 0x3e, 0x81, 0xb2, 0x57, 0x3e,
  0x13, 0x03, 0xea, 0xbe, 0x65, 0xa0, 0xb3, 0x3e, 0xc4, 0x3e, 0xa0, 0xbe,
  0x9b, 0x97, 0x18, 0x3b, 0xfb, 0xa2, 0xb0, 0xbc, 0x8c, 0x6c, 0xa1, 0xbe,
  0x46, 0x75, 0x56, 0x3d, 0xa8, 0x00, 0xe7, 0xbe, 0x5a, 0x9a, 0xe3, 0xbe,
  0xf0, 0x98, 0xc2, 0x3d, 0x44, 0x32, 0xd0, 0x3e, 0x70, 0x42, 0xe8, 0xbd,
  0xa5, 0x73, 0xc3, 0xbe, 0xc5, 0x8b, 0xee, 0x3e, 0x6c, 0x5a, 0xb1, 0x3d,
  0x6e, 0x33, 0x8d, 0x3e, 0xe0, 0x58, 0x6a, 0xbe, 0xb3, 0x9a, 0xd6, 0x3d,
  0xa9, 0xc4, 0x17, 0x3d, 0x07, 0x93, 0xb4, 0x3d, 0x46, 0x56, 0x2a, 0xbe,
  0x40, 0xef, 0xea, 0xbe, 0xfe, 0x32, 0xfd, 0x3e, 0x7e, 0xd7, 0x2a, 0x3e,
  0x60, 0xc1, 0xdf, 0xbd, 0xc6, 0x5e, 0xb3, 0x3d, 0x4c, 0xc8, 0xbc, 0xbe,
  0x73, 0xb0, 0xd1, 0xbd, 0x47, 0xfd, 0xc1, 0x3e, 0x2e, 0x17, 0x6b, 0x3e,
  0x49, 0x79, 0xdb, 0xbb, 0xd7, 0x28, 0x8c, 0x3e, 0x51, 0x1e, 0x62, 0xbe,
  0x55, 0xa8, 0x06, 0x3e, 0xff, 0x70, 0xf5, 0xbe, 0xe8, 0x97, 0x99, 0x3d,
  0x12, 0xab, 0x9e, 0xbe, 0xca, 0x55, 0xef, 0x3e, 0x72, 0xcd, 0xe1, 0xbd,
  0xaa, 0xf6, 0xff, 0xff, 0x04, 0x00, 0x00, 0x00, 0x20, 0x00, 0x00, 0x00,
  0xf1, 0x60, 0x83, 0xbe, 0xa7, 0x24, 0x3d, 0xbe, 0xeb, 0x08, 0x42, 0x3e,
  0x11, 0x1f, 0xda, 0x3d, 0x66, 0x8b, 0x27, 0x3f, 0xdf, 0xf6, 0x22, 0xbe,
  0xc4, 0x0a, 0x50, 0xbe, 0xad, 0x53, 0xa2, 0x3e, 0x00, 0xd7, 0xff, 0xff,
  0x04, 0xd7, 0xff, 0xff, 0x0f, 0x00, 0x00, 0x00, 0x4d, 0x4c, 0x49, 0x52,
  0x20, 0x43, 0x6f, 0x6e, 0x76, 0x65, 0x72, 0x74, 0x65, 0x64, 0x2e, 0x00,
  0x01, 0x00, 0x00, 0x00, 0x14, 0x00, 0x00, 0x00, 0x00, 0x00, 0x0e, 0x00,
  0x18, 0x00, 0x14, 0x00, 0x10, 0x00, 0x0c, 0x00, 0x08, 0x00, 0x04, 0x00,
  0x0e, 0x00, 0x00, 0x00, 0x14, 0x00, 0x00, 0x00, 0x1c, 0x00, 0x00, 0x00,
  0xfc, 0x09, 0x00, 0x00, 0x00, 0x0a, 0x00, 0x00, 0x04, 0x0a, 0x00, 0x00,
  0x04, 0x00, 0x00, 0x00, 0x6d, 0x61, 0x69, 0x6e, 0x00, 0x00, 0x00, 0x00,
  0x30, 0x00, 0x00, 0x00, 0xac, 0x09, 0x00, 0x00, 0x4c, 0x09, 0x00, 0x00,
  0x14, 0x09, 0x00, 0x00, 0xa8, 0x08, 0x00, 0x00, 0x70, 0x08, 0x00, 0x00,
  0x48, 0x08, 0x00, 0x00, 0x10, 0x08, 0x00, 0x00, 0xd8, 0x07, 0x00, 0x00,
  0xa4, 0x07, 0x00, 0x00, 0x80, 0x07, 0x00, 0x00, 0x48, 0x07, 0x00, 0x00,
  0x10, 0x07, 0x00, 0x00, 0xd8, 0x06, 0x00, 0x00, 0xa0, 0x06, 0x00, 0x00,
  0x68, 0x06, 0x00, 0x00, 0x30, 0x06, 0x00, 0x00, 0xf8, 0x05, 0x00, 0x00,
  0xc4, 0x05, 0x00, 0x00, 0xa0, 0x05, 0x00, 0x00, 0x68, 0x05, 0x00, 0x00,
  0x30, 0x05, 0x00, 0x00, 0xfc, 0x04, 0x00, 0x00, 0xd8, 0x04, 0x00, 0x00,
  0xa0, 0x04, 0x00, 0x00, 0x68, 0x04, 0x00, 0x00, 0x34, 0x04, 0x00, 0x00,
  0x10, 0x04, 0x00, 0x00, 0xd8, 0x03, 0x00, 0x00, 0xa0, 0x03, 0x00, 0x00,
  0x6c, 0x03, 0x00, 0x00, 0x48, 0x03, 0x00, 0x00, 0x10, 0x03, 0x00, 0x00,
  0xdc, 0x02, 0x00, 0x00, 0xb8, 0x02, 0x00, 0x00, 0x80, 0x02, 0x00, 0x00,
  0x4c, 0x02, 0x00, 0x00, 0x28, 0x02, 0x00, 0x00, 0xf0, 0x01, 0x00, 0x00,
  0xbc, 0x01, 0x00, 0x00, 0x98, 0x01, 0x00, 0x00, 0x60, 0x01, 0x00, 0x00,
  0x2c, 0x01, 0x00, 0x00, 0x08, 0x01, 0x00, 0x00, 0xd0, 0x00, 0x00, 0x00,
  0x9c, 0x00, 0x00, 0x00, 0x78, 0x00, 0x00, 0x00, 0x3c, 0x00, 0x00, 0x00,
  0x04, 0x00, 0x00, 0x00, 0x7e, 0xf7, 0xff, 0xff, 0x14, 0x00, 0x00, 0x00,
  0x00, 0x00, 0x00, 0x08, 0x10, 0x00, 0x00, 0x00, 0x14, 0x00, 0x00, 0x00,
  0x06, 0x00, 0x00, 0x00, 0x34, 0xd8, 0xff, 0xff, 0x01, 0x00, 0x00, 0x00,
  0x45, 0x00, 0x00, 0x00, 0x03, 0x00, 0x00, 0x00, 0x44, 0x00, 0x00, 0x00,
  0x01, 0x00, 0x00, 0x00, 0x07, 0x00, 0x00, 0x00, 0xb2, 0xf7, 0xff, 0xff,
  0x14, 0x00, 0x00, 0x00, 0x00, 0x00, 0x00, 0x08, 0x14, 0x00, 0x00, 0x00,
  0x18, 0x00, 0x00, 0x00, 0x06, 0x00, 0x00, 0x00, 0x4a, 0xf7, 0xff, 0xff,
  0x00, 0x00, 0x00, 0x01, 0x01, 0x00, 0x00, 0x00, 0x44, 0x00, 0x00, 0x00,
  0x03, 0x00, 0x00, 0x00, 0x43, 0x00, 0x00, 0x00, 0x02, 0x00, 0x00, 0x00,
  0x06, 0x00, 0x00, 0x00, 0x1a, 0xf8, 0xff, 0xff, 0x0c, 0x00, 0x00, 0x00,
  0x10, 0x00, 0x00, 0x00, 0x08, 0x00, 0x00, 0x00, 0x01, 0x00, 0x00, 0x00,
  0x43, 0x00, 0x00, 0x00, 0x01, 0x00, 0x00, 0x00, 0x42, 0x00, 0x00, 0x00,
  0x0a, 0xf8, 0xff, 0xff, 0x14, 0x00, 0x00, 0x00, 0x00, 0x00, 0x00, 0x0b,
  0x10, 0x00, 0x00, 0x00, 0x14, 0x00, 0x00, 0x00, 0x07, 0x00, 0x00, 0x00,
  0xc0, 0xd8, 0xff, 0xff, 0x01, 0x00, 0x00, 0x00, 0x42, 0x00, 0x00, 0x00,
  0x02, 0x00, 0x00, 0x00, 0x25, 0x00, 0x00, 0x00, 0x41, 0x00, 0x00, 0x00,
  0x3a, 0xf8, 0xff, 0xff, 0x14, 0x00, 0x00, 0x00, 0x00, 0x00, 0x00, 0x08,
  0x10, 0x00, 0x00, 0x00, 0x14, 0x00, 0x00, 0x00, 0x06, 0x00, 0x00, 0x00,
  0xf0, 0xd8, 0xff, 0xff, 0x01, 0x00, 0x00, 0x00, 0x41, 0x00, 0x00, 0x00,
  0x03, 0x00, 0x00, 0x00, 0x40, 0x00, 0x00, 0x00, 0x04, 0x00, 0x00, 0x00,
  0xff, 0xff, 0xff, 0xff, 0x9e, 0xf8, 0xff, 0xff, 0x0c, 0x00, 0x00, 0x00,
  0x10, 0x00, 0x00, 0x00, 0x08, 0x00, 0x00, 0x00, 0x01, 0x00, 0x00, 0x00,
  0x40, 0x00, 0x00, 0x00, 0x01, 0x00, 0x00, 0x00, 0x3f, 0x00, 0x00, 0x00,
  0x8e, 0xf8, 0xff, 0xff, 0x14, 0x00, 0x00, 0x00, 0x00, 0x00, 0x00, 0x0b,
  0x10, 0x00, 0x00, 0x00, 0x14, 0x00, 0x00, 0x00, 0x07, 0x00, 0x00, 0x00,
  0x44, 0xd9, 0xff, 0xff, 0x01, 0x00, 0x00, 0x00, 0x3f, 0x00, 0x00, 0x00,
  0x02, 0x00, 0x00, 0x00, 0x24, 0x00, 0x00, 0x00, 0x3e, 0x00, 0x00, 0x00,
  0xbe, 0xf8, 0xff, 0xff, 0x14, 0x00, 0x00, 0x00, 0x00, 0x00, 0x00, 0x08,
  0x10, 0x00, 0x00, 0x00, 0x14, 0x00, 0x00, 0x00, 0x06, 0x00, 0x00, 0x00,
  0x74, 0xd9, 0xff, 0xff, 0x01, 0x00, 0x00, 0x00, 0x3e, 0x00, 0x00, 0x00,
  0x03, 0x00, 0x00, 0x00, 0x3d, 0x00, 0x00, 0x00, 0x04, 0x00, 0x00, 0x00,
  0xff, 0xff, 0xff, 0xff, 0x22, 0xf9, 0xff, 0xff, 0x0c, 0x00, 0x00, 0x00,
  0x10, 0x00, 0x00, 0x00, 0x08, 0x00, 0x00, 0x00, 0x01, 0x00, 0x00, 0x00,
  0x3d, 0x00, 0x00, 0x00, 0x01, 0x00, 0x00, 0x00, 0x3c, 0x00, 0x00, 0x00,
  0x12, 0xf9, 0xff, 0xff, 0x14, 0x00, 0x00, 0x00, 0x00, 0x00, 0x00, 0x0b,
  0x10, 0x00, 0x00, 0x00, 0x14, 0x00, 0x00, 0x00, 0x07, 0x00, 0x00, 0x00,
  0xc8, 0xd9, 0xff, 0xff, 0x01, 0x00, 0x00, 0x00, 0x3c, 0x00, 0x00, 0x00,
  0x02, 0x00, 0x00, 0x00, 0x23, 0x00, 0x00, 0x00, 0x3b, 0x00, 0x00, 0x00,
  0x42, 0xf9, 0xff, 0xff, 0x14, 0x00, 0x00, 0x00, 0x00, 0x00, 0x00, 0x08,
  0x10, 0x00, 0x00, 0x00, 0x14, 0x00, 0x00, 0x00, 0x06, 0x00, 0x00, 0x00,
  0xf8, 0xd9, 0xff, 0xff, 0x01, 0x00, 0x00, 0x00, 0x3b, 0x00, 0x00, 0x00,
  0x03, 0x00, 0x00, 0x00, 0x3a, 0x00, 0x00, 0x00, 0x04, 0x00, 0x00, 0x00,
  0xff, 0xff, 0xff, 0xff, 0xa6, 0xf9, 0xff, 0xff, 0x0c, 0x00, 0x00, 0x00,
  0x10, 0x00, 0x00, 0x00, 0x08, 0x00, 0x00, 0x00, 0x01, 0x00, 0x00, 0x00,
  0x3a, 0x00, 0x00, 0x00, 0x01, 0x00, 0x00, 0x00, 0x39, 0x00, 0x00, 0x00,
  0x96, 0xf9, 0xff, 0xff, 0x14, 0x00, 0x00, 0x00, 0x00, 0x00, 0x00, 0x0b,
  0x10, 0x00, 0x00, 0x00, 0x14, 0x00, 0x00, 0x00, 0x07, 0x00, 0x00, 0x00,
  0x4c, 0xda, 0xff, 0xff, 0x01, 0x00, 0x00, 0x00, 0x39, 0x00, 0x00, 0x00,
  0x02, 0x00, 0x00, 0x00, 0x22, 0x00, 0x00, 0x00, 0x38, 0x00, 0x00, 0x00,
  0xc6, 0xf9, 0xff, 0xff, 0x14, 0x00, 0x00, 0x00, 0x00, 0x00, 0x00, 0x08,
  0x10, 0x00, 0x00, 0x00, 0x14, 0x00, 0x00, 0x00, 0x06, 0x00, 0x00, 0x00,
  0x7c, 0xda, 0xff, 0xff, 0x01, 0x00, 0x00, 0x00, 0x38, 0x00, 0x00, 0x00,
  0x03, 0x00, 0x00, 0x00, 0x37, 0x00, 0x00, 0x00, 0x04, 0x00, 0x00, 0x00,
  0xff, 0xff, 0xff, 0xff, 0x2a, 0xfa, 0xff, 0xff, 0x0c, 0x00, 0x00, 0x00,
  0x10, 0x00, 0x00, 0x00, 0x08, 0x00, 0x00, 0x00, 0x01, 0x00, 0x00, 0x00,
  0x37, 0x00, 0x00, 0x00, 0x01, 0x00, 0x00, 0x00, 0x36, 0x00, 0x00, 0x00,
  0x1a, 0xfa, 0xff, 0xff, 0x14, 0x00, 0x00, 0x00, 0x00, 0x00, 0x00, 0x0b,
  0x10, 0x00, 0x00, 0x00, 0x14, 0x00, 0x00, 0x00, 0x07, 0x00, 0x00, 0x00,
  0xd0, 0xda, 0xff, 0xff, 0x01, 0x00, 0x00, 0x00, 0x36, 0x00, 0x00, 0x00,
  0x02, 0x00, 0x00, 0x00, 0x21, 0x00, 0x00, 0x00, 0x35, 0x00, 0x00, 0x00,
  0x4a, 0xfa, 0xff, 0xff, 0x14, 0x00, 0x00, 0x00, 0x00, 0x00, 0x00, 0x08,
  0x10, 0x00, 0x00, 0x00, 0x14, 0x00, 0x00, 0x00, 0x06, 0x00, 0x00, 0x00,
  0x00, 0xdb, 0xff, 0xff, 0x01, 0x00, 0x00, 0x00, 0x35, 0x00, 0x00, 0x00,
  0x03, 0x00, 0x00, 0x00, 0x34, 0x00, 0x00, 0x00, 0x04, 0x00, 0x00, 0x00,
  0xff, 0xff, 0xff, 0xff, 0xae, 0xfa, 0xff, 0xff, 0x0c, 0x00, 0x00, 0x00,
  0x10, 0x00, 0x00, 0x00, 0x08, 0x00, 0x00, 0x00, 0x01, 0x00, 0x00, 0x00,
  0x34, 0x00, 0x00, 0x00, 0x01, 0x00, 0x00, 0x00, 0x33, 0x00, 0x00, 0x00,
  0x9e, 0xfa, 0xff, 0xff, 0x14, 0x00, 0x00, 0x00, 0x00, 0x00, 0x00, 0x0b,
  0x10, 0x00, 0x00, 0x00, 0x14, 0x00, 0x00, 0x00, 0x07, 0x00, 0x00, 0x00,
  0x54, 0xdb, 0xff, 0xff, 0x01, 0x00, 0x00, 0x00, 0x33, 0x00, 0x00, 0x00,
  0x02, 0x00, 0x00, 0x00, 0x32, 0x00, 0x00, 0x00, 0x31, 0x00, 0x00, 0x00,
  0xce, 0xfa, 0xff, 0xff, 0x14, 0x00, 0x00, 0x00, 0x00, 0x00, 0x00, 0x08,
  0x10, 0x00, 0x00, 0x00, 0x14, 0x00, 0x00, 0x00, 0x06, 0x00, 0x00, 0x00,
  0x84, 0xdb, 0xff, 0xff, 0x01, 0x00, 0x00, 0x00, 0x32, 0x00, 0x00, 0x00,
  0x03, 0x00, 0x00, 0x00, 0x14, 0x00, 0x00, 0x00, 0x03, 0x00, 0x00, 0x00,
  0x05, 0x00, 0x00, 0x00, 0x02, 0xfb, 0xff, 0xff, 0x14, 0x00, 0x00, 0x00,
  0x00, 0x00, 0x00, 0x08, 0x10, 0x00, 0x00, 0x00, 0x14, 0x00, 0x00, 0x00,
  0x06, 0x00, 0x00, 0x00, 0xb8, 0xdb, 0xff, 0xff, 0x01, 0x00, 0x00, 0x00,
  0x31, 0x00, 0x00, 0x00, 0x03, 0x00, 0x00, 0x00, 0x30, 0x00, 0x00, 0x00,
  0x04, 0x00, 0x00, 0x00, 0xff, 0xff, 0xff, 0xff, 0x66, 0xfb, 0xff, 0xff,
  0x0c, 0x00, 0x00, 0x00, 0x10, 0x00, 0x00, 0x00, 0x08, 0x00, 0x00, 0x00,
  0x01, 0x00, 0x00, 0x00, 0x30, 0x00, 0x00, 0x00, 0x01, 0x00, 0x00, 0x00,
  0x2f, 0x00, 0x00, 0x00, 0x56, 0xfb, 0xff, 0xff, 0x14, 0x00, 0x00, 0x00,
  0x00, 0x00, 0x00, 0x0b, 0x10, 0x00, 0x00, 0x00, 0x14, 0x00, 0x00, 0x00,
  0x07, 0x00, 0x00, 0x00, 0x0c, 0xdc, 0xff, 0xff, 0x01, 0x00, 0x00, 0x00,
  0x2f, 0x00, 0x00, 0x00, 0x02, 0x00, 0x00, 0x00, 0x2e, 0x00, 0x00, 0x00,
  0x2d, 0x00, 0x00, 0x00, 0x86, 0xfb, 0xff, 0xff, 0x14, 0x00, 0x00, 0x00,
  0x00, 0x00, 0x00, 0x08, 0x10, 0x00, 0x00, 0x00, 0x14, 0x00, 0x00, 0x00,
  0x06, 0x00, 0x00, 0x00, 0x3c, 0xdc, 0xff, 0xff, 0x01, 0x00, 0x00, 0x00,
  0x2e, 0x00, 0x00, 0x00, 0x03, 0x00, 0x00, 0x00, 0x13, 0x00, 0x00, 0x00,
  0x03, 0x00, 0x00, 0x00, 0x05, 0x00, 0x00, 0x00, 0xba, 0xfb, 0xff, 0xff,
  0x14, 0x00, 0x00, 0x00, 0x00, 0x00, 0x00, 0x08, 0x10, 0x00, 0x00, 0x00,
  0x14, 0x00, 0x00, 0x00, 0x06, 0x00, 0x00, 0x00, 0x70, 0xdc, 0xff, 0xff,
  0x01, 0x00, 0x00, 0x00, 0x2d, 0x00, 0x00, 0x00, 0x03, 0x00, 0x00, 0x00,
  0x2c, 0x00, 0x00, 0x00, 0x04, 0x00, 0x00, 0x00, 0xff, 0xff, 0xff, 0xff,
  0x1e, 0xfc, 0xff, 0xff, 0x0c, 0x00, 0x00, 0x00, 0x10, 0x00, 0x00, 0x00,
  0x08, 0x00, 0x00, 0x00, 0x01, 0x00, 0x00, 0x00, 0x2c, 0x00, 0x00, 0x00,
  0x01, 0x00, 0x00, 0x00, 0x2b, 0x00, 0x00, 0x00, 0x0e, 0xfc, 0xff, 0xff,
  0x14, 0x00, 0x00, 0x00, 0x00, 0x00, 0x00, 0x0b, 0x10, 0x00, 0x00, 0x00,
  0x14, 0x00, 0x00, 0x00, 0x07, 0x00, 0x00, 0x00, 0xc4, 0xdc, 0xff, 0xff,
  0x01, 0x00, 0x00, 0x00, 0x2b, 0x00, 0x00, 0x00, 0x02, 0x00, 0x00, 0x00,
  0x2a, 0x00, 0x00, 0x00, 0x29, 0x00, 0x00, 0x00, 0x3e, 0xfc, 0xff, 0xff,
  0x14, 0x00, 0x00, 0x00, 0x00, 0x00, 0x00, 0x08, 0x10, 0x00, 0x00, 0x00,
  0x14, 0x00, 0x00, 0x00, 0x06, 0x00, 0x00, 0x00, 0xf4, 0xdc, 0xff, 0xff,
  0x01, 0x00, 0x00, 0x00, 0x2a, 0x00, 0x00, 0x00, 0x03, 0x00, 0x00, 0x00,
  0x12, 0x00, 0x00, 0x00, 0x03, 0x00, 0x00, 0x00, 0x05, 0x00, 0x00, 0x00,
  0x72, 0xfc, 0xff, 0xff, 0x14, 0x00, 0x00, 0x00, 0x00, 0x00, 0x00, 0x08,
  0x10, 0x00, 0x00, 0x00, 0x14, 0x00, 0x00, 0x00, 0x06, 0x00, 0x00, 0x00,
  0x28, 0xdd, 0xff, 0xff, 0x01, 0x00, 0x00, 0x00, 0x29, 0x00, 0x00, 0x00,
  0x03, 0x00, 0x00, 0x00, 0x28, 0x00, 0x00, 0x00, 0x04, 0x00, 0x00, 0x00,
  0xff, 0xff, 0xff, 0xff, 0xd6, 0xfc, 0xff, 0xff, 0x0c, 0x00, 0x00, 0x00,
  0x10, 0x00, 0x00, 0x00, 0x08, 0x00, 0x00, 0x00, 0x01, 0x00, 0x00, 0x00,
  0x28, 0x00, 0x00, 0x00, 0x01, 0x00, 0x00, 0x00, 0x27, 0x00, 0x00, 0x00,
  0xc6, 0xfc, 0xff, 0xff, 0x14, 0x00, 0x00, 0x00, 0x00, 0x00, 0x00, 0x0b,
  0x10, 0x00, 0x00, 0x00, 0x14, 0x00, 0x00, 0x00, 0x07, 0x00, 0x00, 0x00,
  0x7c, 0xdd, 0xff, 0xff, 0x01, 0x00, 0x00, 0x00, 0x27, 0x00, 0x00, 0x00,
  0x02, 0x00, 0x00, 0x00, 0x26, 0x00, 0x00, 0x00, 0x20, 0x00, 0x00, 0x00,
  0xf6, 0xfc, 0xff, 0xff, 0x14, 0x00, 0x00, 0x00, 0x00, 0x00, 0x00, 0x08,
  0x10, 0x00, 0x00, 0x00, 0x14, 0x00, 0x00, 0x00, 0x06, 0x00, 0x00, 0x00,
  0xac, 0xdd, 0xff, 0xff, 0x01, 0x00, 0x00, 0x00, 0x26, 0x00, 0x00, 0x00,
  0x03, 0x00, 0x00, 0x00, 0x11, 0x00, 0x00, 0x00, 0x03, 0x00, 0x00, 0x00,
  0x05, 0x00, 0x00, 0x00, 0x2a, 0xfd, 0xff, 0xff, 0x14, 0x00, 0x00, 0x00,
  0x00, 0x00, 0x00, 0x08, 0x10, 0x00, 0x00, 0x00, 0x14, 0x00, 0x00, 0x00,
  0x06, 0x00, 0x00, 0x00, 0xe0, 0xdd, 0xff, 0xff, 0x01, 0x00, 0x00, 0x00,
  0x25, 0x00, 0x00, 0x00, 0x03, 0x00, 0x00, 0x00, 0x19, 0x00, 0x00, 0x00,
  0x03, 0x00, 0x00, 0x00, 0x05, 0x00, 0x00, 0x00, 0x5e, 0xfd, 0xff, 0xff,
  0x14, 0x00, 0x00, 0x00, 0x00, 0x00, 0x00, 0x08, 0x10, 0x00, 0x00, 0x00,
  0x14, 0x00, 0x00, 0x00, 0x06, 0x00, 0x00, 0x00, 0x14, 0xde, 0xff, 0xff,
  0x01, 0x00, 0x00, 0x00, 0x24, 0x00, 0x00, 0x00, 0x03, 0x00, 0x00, 0x00,
  0x18, 0x00, 0x00, 0x00, 0x03, 0x00, 0x00, 0x00, 0x05, 0x00, 0x00, 0x00,
  0x92, 0xfd, 0xff, 0xff, 0x14, 0x00, 0x00, 0x00, 0x00, 0x00, 0x00, 0x08,
  0x10, 0x00, 0x00, 0x00, 0x14, 0x00, 0x00, 0x00, 0x06, 0x00, 0x00, 0x00,
  0x48, 0xde, 0xff, 0xff, 0x01, 0x00, 0x00, 0x00, 0x23, 0x00, 0x00, 0x00,
  0x03, 0x00, 0x00, 0x00, 0x17, 0x00, 0x00, 0x00, 0x03, 0x00, 0x00, 0x00,
  0x05, 0x00, 0x00, 0x00, 0xc6, 0xfd, 0xff, 0xff, 0x14, 0x00, 0x00, 0x00,
  0x00, 0x00, 0x00, 0x08, 0x10, 0x00, 0x00, 0x00, 0x14, 0x00, 0x00, 0x00,
  0x06, 0x00, 0x00, 0x00, 0x7c, 0xde, 0xff, 0xff, 0x01, 0x00, 0x00, 0x00,
  0x22, 0x00, 0x00, 0x00, 0x03, 0x00, 0x00, 0x00, 0x16, 0x00, 0x00, 0x00,
  0x03, 0x00, 0x00, 0x00, 0x05, 0x00, 0x00, 0x00, 0xfa, 0xfd, 0xff, 0xff,
  0x14, 0x00, 0x00, 0x00, 0x00, 0x00, 0x00, 0x08, 0x10, 0x00, 0x00, 0x00,
  0x14, 0x00, 0x00, 0x00, 0x06, 0x00, 0x00, 0x00, 0xb0, 0xde, 0xff, 0xff,
  0x01, 0x00, 0x00, 0x00, 0x21, 0x00, 0x00, 0x00, 0x03, 0x00, 0x00, 0x00,
  0x15, 0x00, 0x00, 0x00, 0x03, 0x00, 0x00, 0x00, 0x05, 0x00, 0x00, 0x00,
  0x2e, 0xfe, 0xff, 0xff, 0x14, 0x00, 0x00, 0x00, 0x00, 0x00, 0x00, 0x08,
  0x10, 0x00, 0x00, 0x00, 0x14, 0x00, 0x00, 0x00, 0x06, 0x00, 0x00, 0x00,
  0xe4, 0xde, 0xff, 0xff, 0x01, 0x00, 0x00, 0x00, 0x20, 0x00, 0x00, 0x00,
  0x03, 0x00, 0x00, 0x00, 0x1f, 0x00, 0x00, 0x00, 0x04, 0x00, 0x00, 0x00,
  0xff, 0xff, 0xff, 0xff, 0x92, 0xfe, 0xff, 0xff, 0x0c, 0x00, 0x00, 0x00,
  0x10, 0x00, 0x00, 0x00, 0x08, 0x00, 0x00, 0x00, 0x01, 0x00, 0x00, 0x00,
  0x1f, 0x00, 0x00, 0x00, 0x01, 0x00, 0x00, 0x00, 0x1e, 0x00, 0x00, 0x00,
  0x82, 0xfe, 0xff, 0xff, 0x14, 0x00, 0x00, 0x00, 0x00, 0x00, 0x00, 0x0b,
  0x10, 0x00, 0x00, 0x00, 0x14, 0x00, 0x00, 0x00, 0x07, 0x00, 0x00, 0x00,
  0x38, 0xdf, 0xff, 0xff, 0x01, 0x00, 0x00, 0x00, 0x1e, 0x00, 0x00, 0x00,
  0x02, 0x00, 0x00, 0x00, 0x1d, 0x00, 0x00, 0x00, 0x1c, 0x00, 0x00, 0x00,
  0xb2, 0xfe, 0xff, 0xff, 0x14, 0x00, 0x00, 0x00, 0x00, 0x00, 0x00, 0x08,
  0x10, 0x00, 0x00, 0x00, 0x14, 0x00, 0x00, 0x00, 0x06, 0x00, 0x00, 0x00,
  0x68, 0xdf, 0xff, 0xff, 0x01, 0x00, 0x00, 0x00, 0x1d, 0x00, 0x00, 0x00,
  0x03, 0x00, 0x00, 0x00, 0x10, 0x00, 0x00, 0x00, 0x03, 0x00, 0x00, 0x00,
  0x05, 0x00, 0x00, 0x00, 0xe6, 0xfe, 0xff, 0xff, 0x14, 0x00, 0x00, 0x00,
  0x00, 0x00, 0x00, 0x08, 0x10, 0x00, 0x00, 0x00, 0x14, 0x00, 0x00, 0x00,
  0x06, 0x00, 0x00, 0x00, 0x9c, 0xdf, 0xff, 0xff, 0x01, 0x00, 0x00, 0x00,
  0x1c, 0x00, 0x00, 0x00, 0x03, 0x00, 0x00, 0x00, 0x1b, 0x00, 0x00, 0x00,
  0x04, 0x00, 0x00, 0x00, 0xff, 0xff, 0xff, 0xff, 0x4a, 0xff, 0xff, 0xff,
  0x0c, 0x00, 0x00, 0x00, 0x10, 0x00, 0x00, 0x00, 0x05, 0x00, 0x00, 0x00,
  0x01, 0x00, 0x00, 0x00, 0x1b, 0x00, 0x00, 0x00, 0x02, 0x00, 0x00, 0x00,
  0x1a, 0x00, 0x00, 0x00, 0x09, 0x00, 0x00, 0x00, 0x3e, 0xff, 0xff, 0xff,
  0x14, 0x00, 0x00, 0x00, 0x00, 0x00, 0x00, 0x3b, 0x14, 0x00, 0x00, 0x00,
  0x18, 0x00, 0x00, 0x00, 0x04, 0x00, 0x00, 0x00, 0xca, 0xff, 0xff, 0xff,
  0x02, 0x00, 0x00, 0x00, 0x01, 0x00, 0x00, 0x00, 0x1a, 0x00, 0x00, 0x00,
  0x02, 0x00, 0x00, 0x00, 0x0e, 0x00, 0x00, 0x00, 0x08, 0x00, 0x00, 0x00,
  0x72, 0xff, 0xff, 0xff, 0x1c, 0x00, 0x00, 0x00, 0x00, 0x00, 0x00, 0x40,
  0x1c, 0x00, 0x00, 0x00, 0x44, 0x00, 0x00, 0x00, 0x03, 0x00, 0x00, 0x00,
  0x00, 0x00, 0x06, 0x00, 0x08, 0x00, 0x04, 0x00, 0x06, 0x00, 0x00, 0x00,
  0x0a, 0x00, 0x00, 0x00, 0x0a, 0x00, 0x00, 0x00, 0x10, 0x00, 0x00, 0x00,
  0x11, 0x00, 0x00, 0x00, 0x12, 0x00, 0x00, 0x00, 0x13, 0x00, 0x00, 0x00,
  0x14, 0x00, 0x00, 0x00, 0x15, 0x00, 0x00, 0x00, 0x16, 0x00, 0x00, 0x00,
  0x17, 0x00, 0x00, 0x00, 0x18, 0x00, 0x00, 0x00, 0x19, 0x00, 0x00, 0x00,
  0x01, 0x00, 0x00, 0x00, 0x0f, 0x00, 0x00, 0x00, 0x00, 0x00, 0x0a, 0x00,
  0x10, 0x00, 0x0c, 0x00, 0x08, 0x00, 0x04, 0x00, 0x0a, 0x00, 0x00, 0x00,
  0x0c, 0x00, 0x00, 0x00, 0x10, 0x00, 0x00, 0x00, 0x02, 0x00, 0x00, 0x00,
  0x01, 0x00, 0x00, 0x00, 0x0f, 0x00, 0x00, 0x00, 0x02, 0x00, 0x00, 0x00,
  0x00, 0x00, 0x00, 0x00, 0x0a, 0x00, 0x00, 0x00, 0x00, 0x00, 0x0e, 0x00,
  0x1a, 0x00, 0x14, 0x00, 0x10, 0x00, 0x0c, 0x00, 0x0b, 0x00, 0x04, 0x00,
  0x0e, 0x00, 0x00, 0x00, 0x24, 0x00, 0x00, 0x00, 0x00, 0x00, 0x00, 0x20,
  0x24, 0x00, 0x00, 0x00, 0x28, 0x00, 0x00, 0x00, 0x01, 0x00, 0x00, 0x00,
  0x00, 0x00, 0x0e, 0x00, 0x08, 0x00, 0x00, 0x00, 0x00, 0x00, 0x00, 0x00,
  0x00, 0x00, 0x04, 0x00, 0x0e, 0x00, 0x00, 0x00, 0x01, 0x00, 0x00, 0x00,
  0x01, 0x00, 0x00, 0x00, 0x0e, 0x00, 0x00, 0x00, 0x04, 0x00, 0x00, 0x00,
  0x0d, 0x00, 0x00, 0x00, 0x0c, 0x00, 0x00, 0x00, 0x0b, 0x00, 0x00, 0x00,
  0x0b, 0x00, 0x00, 0x00, 0x00, 0x00, 0x0e, 0x00, 0x16, 0x00, 0x00, 0x00,
  0x10, 0x00, 0x0c, 0x00, 0x0b, 0x00, 0x04, 0x00, 0x0e, 0x00, 0x00, 0x00,
  0x18, 0x00, 0x00, 0x00, 0x00, 0x00, 0x00, 0x37, 0x18, 0x00, 0x00, 0x00,
  0x1c, 0x00, 0x00, 0x00, 0x00, 0x00, 0x06, 0x00, 0x08, 0x00, 0x07, 0x00,
  0x06, 0x00, 0x00, 0x00, 0x00, 0x00, 0x00, 0x02, 0x01, 0x00, 0x00, 0x00,
  0x0d, 0x00, 0x00, 0x00, 0x01, 0x00, 0x00, 0x00, 0x00, 0x00, 0x00, 0x00,
  0x01, 0x00, 0x00, 0x00, 0x45, 0x00, 0x00, 0x00, 0x01, 0x00, 0x00, 0x00,
  0x00, 0x00, 0x00, 0x00, 0x46, 0x00, 0x00, 0x00, 0x18, 0x1e, 0x00, 0x00,
  0xc0, 0x1d, 0x00, 0x00, 0x68, 0x1d, 0x00, 0x00, 0x28, 0x1d, 0x00, 0x00,
  0xe8, 0x1c, 0x00, 0x00, 0xac, 0x1c, 0x00, 0x00, 0x70, 0x1c, 0x00, 0x00,
  0x34, 0x1c, 0x00, 0x00, 0xf8, 0x1b, 0x00, 0x00, 0xa8, 0x1b, 0x00, 0x00,
  0x68, 0x1b, 0x00, 0x00, 0x24, 0x1b, 0x00, 0x00, 0xe0, 0x1a, 0x00, 0x00,
  0x90, 0x1a, 0x00, 0x00, 0x3c, 0x1a, 0x00, 0x00, 0xd0, 0x19, 0x00, 0x00,
  0x6c, 0x19, 0x00, 0x00, 0x08, 0x19, 0x00, 0x00, 0xa4, 0x18, 0x00, 0x00,
  0x40, 0x18, 0x00, 0x00, 0xdc, 0x17, 0x00, 0x00, 0x78, 0x17, 0x00, 0x00,
  0x14, 0x17, 0x00, 0x00, 0xb0, 0x16, 0x00, 0x00, 0x4c, 0x16, 0x00, 0x00,
  0xe8, 0x15, 0x00, 0x00, 0x90, 0x15, 0x00, 0x00, 0x30, 0x15, 0x00, 0x00,
  0xb8, 0x14, 0x00, 0x00, 0x14, 0x14, 0x00, 0x00, 0xa0, 0x13, 0x00, 0x00,
  0x2c, 0x13, 0x00, 0x00, 0xb4, 0x12, 0x00, 0x00, 0x0c, 0x12, 0x00, 0x00,
  0x64, 0x11, 0x00, 0x00, 0xbc, 0x10, 0x00, 0x00, 0x14, 0x10, 0x00, 0x00,
  0x6c, 0x0f, 0x00, 0x00, 0xc8, 0x0e, 0x00, 0x00, 0x54, 0x0e, 0x00, 0x00,
  0xe0, 0x0d, 0x00, 0x00, 0x68, 0x0d, 0x00, 0x00, 0xc4, 0x0c, 0x00, 0x00,
  0x50, 0x0c, 0x00, 0x00, 0xdc, 0x0b, 0x00, 0x00, 0x64, 0x0b, 0x00, 0x00,
  0xc0, 0x0a, 0x00, 0x00, 0x4c, 0x0a, 0x00, 0x00, 0xd8, 0x09, 0x00, 0x00,
  0x60, 0x09, 0x00, 0x00, 0xbc, 0x08, 0x00, 0x00, 0x48, 0x08, 0x00, 0x00,
  0xd4, 0x07, 0x00, 0x00, 0x5c, 0x07, 0x00, 0x00, 0xe8, 0x06, 0x00, 0x00,
  0x74, 0x06, 0x00, 0x00, 0xfc, 0x05, 0x00, 0x00, 0x88, 0x05, 0x00, 0x00,
  0x14, 0x05, 0x00, 0x00, 0x9c, 0x04, 0x00, 0x00, 0x28, 0x04, 0x00, 0x00,
  0xb4, 0x03, 0x00, 0x00, 0x3c, 0x03, 0x00, 0x00, 0xc8, 0x02, 0x00, 0x00,
  0x54, 0x02, 0x00, 0x00, 0xdc, 0x01, 0x00, 0x00, 0x68, 0x01, 0x00, 0x00,
  0xf4, 0x00, 0x00, 0x00, 0x60, 0x00, 0x00, 0x00, 0x04, 0x00, 0x00, 0x00,
  0x16, 0xe3, 0xff, 0xff, 0x00, 0x00, 0x00, 0x01, 0x14, 0x00, 0x00, 0x00,
  0x1c, 0x00, 0x00, 0x00, 0x1c, 0x00, 0x00, 0x00, 0x46, 0x00, 0x00, 0x00,
  0x34, 0x00, 0x00, 0x00, 0x02, 0x00, 0x00, 0x00, 0xff, 0xff, 0xff, 0xff,
  0x01, 0x00, 0x00, 0x00, 0x90, 0xe2, 0xff, 0xff, 0x1b, 0x00, 0x00, 0x00,
  0x53, 0x74, 0x61, 0x74, 0x65, 0x66, 0x75, 0x6c, 0x50, 0x61, 0x72, 0x74,
  0x69, 0x74, 0x69, 0x6f, 0x6e, 0x65, 0x64, 0x43, 0x61, 0x6c, 0x6c, 0x5f,
  0x31, 0x3a, 0x30, 0x00, 0x02, 0x00, 0x00, 0x00, 0x01, 0x00, 0x00, 0x00,
  0x01, 0x00, 0x00, 0x00, 0x6e, 0xe3, 0xff, 0xff, 0x00, 0x00, 0x00, 0x01,
  0x14, 0x00, 0x00, 0x00, 0x1c, 0x00, 0x00, 0x00, 0x1c, 0x00, 0x00, 0x00,
  0x45, 0x00, 0x00, 0x00, 0x6c, 0x00, 0x00, 0x00, 0x02, 0x00, 0x00, 0x00,
  0xff, 0xff, 0xff, 0xff, 0x08, 0x00, 0x00, 0x00, 0xe8, 0xe2, 0xff, 0xff,
  0x52, 0x00, 0x00, 0x00, 0x73, 0x65, 0x71, 0x75, 0x65, 0x6e, 0x74, 0x69,
  0x61, 0x6c, 0x5f, 0x31, 0x2f, 0x64, 0x65, 0x6e, 0x73, 0x65, 0x5f, 0x31,
  0x2f, 0x4d, 0x61, 0x74, 0x4d, 0x75, 0x6c, 0x3b, 0x73, 0x65, 0x71, 0x75,
  0x65, 0x6e, 0x74, 0x69, 0x61, 0x6c, 0x5f, 0x31, 0x2f, 0x64, 0x65, 0x6e,
  0x73, 0x65, 0x5f, 0x31, 0x2f, 0x52, 0x65, 0x6c, 0x75, 0x3b, 0x73, 0x65,
  0x71, 0x75, 0x65, 0x6e, 0x74, 0x69, 0x61, 0x6c, 0x5f, 0x31, 0x2f, 0x64,
  0x65, 0x6e, 0x73, 0x65, 0x5f, 0x31, 0x2f, 0x42, 0x69, 0x61, 0x73, 0x41,
  0x64, 0x64, 0x00, 0x00, 0x02, 0x00, 0x00, 0x00, 0x01, 0x00, 0x00, 0x00,
  0x08, 0x00, 0x00, 0x00, 0xfe, 0xe3, 0xff, 0xff, 0x00, 0x00, 0x00, 0x01,
  0x14, 0x00, 0x00, 0x00, 0x1c, 0x00, 0x00, 0x00, 0x1c, 0x00, 0x00, 0x00,
  0x44, 0x00, 0x00, 0x00, 0x4c, 0x00, 0x00, 0x00, 0x02, 0x00, 0x00, 0x00,
  0xff, 0xff, 0xff, 0xff, 0x10, 0x00, 0x00, 0x00, 0x78, 0xe3, 0xff, 0xff,
  0x31, 0x00, 0x00, 0x00, 0x73, 0x65, 0x71, 0x75, 0x65, 0x6e, 0x74, 0x69,
  0x61, 0x6c, 0x5f, 0x31, 0x2f, 0x73, 0x69, 0x6d, 0x70, 0x6c, 0x65, 0x5f,
  0x72, 0x6e, 0x6e, 0x5f, 0x31, 0x2f, 0x73, 0x69, 0x6d, 0x70, 0x6c, 0x65,
  0x5f, 0x72, 0x6e, 0x6e, 0x5f, 0x63, 0x65, 0x6c, 0x6c, 0x5f, 0x31, 0x39,
  0x2f, 0x54, 0x61, 0x6e, 0x68, 0x00, 0x00, 0x00, 0x02, 0x00, 0x00, 0x00,
  0x01, 0x00, 0x00, 0x00, 0x10, 0x00, 0x00, 0x00, 0x6e, 0xe4, 0xff, 0xff,
  0x00, 0x00, 0x00, 0x01, 0x14, 0x00, 0x00, 0x00, 0x1c, 0x00, 0x00, 0x00,
  0x1c, 0x00, 0x00, 0x00, 0x43, 0x00, 0x00, 0x00, 0x4c, 0x00, 0x00, 0x00,
  0x02, 0x00, 0x00, 0x00, 0xff, 0xff, 0xff, 0xff, 0x10, 0x00, 0x00, 0x00,
  0xe8, 0xe3, 0xff, 0xff, 0x32, 0x00, 0x00, 0x00, 0x73, 0x65, 0x71, 0x75,
  0x65, 0x6e, 0x74, 0x69, 0x61, 0x6c, 0x5f, 0x31, 0x2f, 0x73, 0x69, 0x6d,
  0x70, 0x6c, 0x65, 0x5f, 0x72, 0x6e, 0x6e, 0x5f, 0x31, 0x2f, 0x73, 0x69,
  0x6d, 0x70, 0x6c, 0x65, 0x5f, 0x72, 0x6e, 0x6e, 0x5f, 0x63, 0x65, 0x6c,
  0x6c, 0x5f, 0x31, 0x39, 0x2f, 0x61, 0x64, 0x64, 0x5f, 0x31, 0x00, 0x00,
  0x02, 0x00, 0x00, 0x00, 0x01, 0x00, 0x00, 0x00, 0x10, 0x00, 0x00, 0x00,
  0xde, 0xe4, 0xff, 0xff, 0x00, 0x00, 0x00, 0x01, 0x14, 0x00, 0x00, 0x00,
  0x1c, 0x00, 0x00, 0x00, 0x1c, 0x00, 0x00, 0x00, 0x42, 0x00, 0x00, 0x00,
  0x50, 0x00, 0x00, 0x00, 0x02, 0x00, 0x00, 0x00, 0xff, 0xff, 0xff, 0xff,
  0x10, 0x00, 0x00, 0x00, 0x58, 0xe4, 0xff, 0xff, 0x35, 0x00, 0x00, 0x00,
  0x73, 0x65, 0x71, 0x75, 0x65, 0x6e, 0x74, 0x69, 0x61, 0x6c, 0x5f, 0x31,
  0x2f, 0x73, 0x69, 0x6d, 0x70, 0x6c, 0x65, 0x5f, 0x72, 0x6e, 0x6e, 0x5f,
  0x31, 0x2f, 0x73, 0x69, 0x6d, 0x70, 0x6c, 0x65, 0x5f, 0x72, 0x6e, 0x6e,
  0x5f, 0x63, 0x65, 0x6c, 0x6c, 0x5f, 0x31, 0x39, 0x2f, 0x4d, 0x61, 0x74,
  0x4d, 0x75, 0x6c, 0x5f, 0x31, 0x00, 0x00, 0x00, 0x02, 0x00, 0x00, 0x00,
  0x01, 0x00, 0x00, 0x00, 0x10, 0x00, 0x00, 0x00, 0x52, 0xe5, 0xff, 0xff,
  0x00, 0x00, 0x00, 0x01, 0x14, 0x00, 0x00, 0x00, 0x1c, 0x00, 0x00, 0x00,
  0x1c, 0x00, 0x00, 0x00, 0x41, 0x00, 0x00, 0x00, 0x4c, 0x00, 0x00, 0x00,
  0x02, 0x00, 0x00, 0x00, 0xff, 0xff, 0xff, 0xff, 0x10, 0x00, 0x00, 0x00,
  0xcc, 0xe4, 0xff, 0xff, 0x31, 0x00, 0x00, 0x00, 0x73, 0x65, 0x71, 0x75,
  0x65, 0x6e, 0x74, 0x69, 0x61, 0x6c, 0x5f, 0x31, 0x2f, 0x73, 0x69, 0x6d,
  0x70, 0x6c, 0x65, 0x5f, 0x72, 0x6e, 0x6e, 0x5f, 0x31, 0x2f, 0x73, 0x69,
  0x6d, 0x70, 0x6c, 0x65, 0x5f, 0x72, 0x6e, 0x6e, 0x5f, 0x63, 0x65, 0x6c,
  0x6c, 0x5f, 0x31, 0x37, 0x2f, 0x54, 0x61, 0x6e, 0x68, 0x00, 0x00, 0x00,
  0x02, 0x00, 0x00, 0x00, 0x01, 0x00, 0x00, 0x00, 0x10, 0x00, 0x00, 0x00,
  0xc2, 0xe5, 0xff, 0xff, 0x00, 0x00, 0x00, 0x01, 0x14, 0x00, 0x00, 0x00,
  0x1c, 0x00, 0x00, 0x00, 0x1c, 0x00, 0x00, 0x00, 0x40, 0x00, 0x00, 0x00,
  0x4c, 0x00, 0x00, 0x00, 0x02, 0x00, 0x00, 0x00, 0xff, 0xff, 0xff, 0xff,
  0x10, 0x00, 0x00, 0x00, 0x3c, 0xe5, 0xff, 0xff, 0x32, 0x00, 0x00, 0x00,
  0x73, 0x65, 0x71, 0x75, 0x65, 0x6e, 0x74, 0x69, 0x61, 0x6c, 0x5f, 0x31,
  0x2f, 0x73, 0x69, 0x6d, 0x70, 0x6c, 0x65, 0x5f, 0x72, 0x6e, 0x6e, 0x5f,
  0x31, 0x2f, 0x73, 0x69, 0x6d, 0x70, 0x6c, 0x65, 0x5f, 0x72, 0x6e, 0x6e,
  0x5f, 0x63, 0x65, 0x6c, 0x6c, 0x5f, 0x31, 0x37, 0x2f, 0x61, 0x64, 0x64,
  0x5f, 0x31, 0x00, 0x00, 0x02, 0x00, 0x00, 0x00, 0x01, 0x00, 0x00, 0x00,
  0x10, 0x00, 0x00, 0x00, 0x32, 0xe6, 0xff, 0xff, 0x00, 0x00, 0x00, 0x01,
  0x14, 0x00, 0x00, 0x00, 0x1c, 0x00, 0x00, 0x00, 0x1c, 0x00, 0x00, 0x00,
  0x3f, 0x00, 0x00, 0x00, 0x50, 0x00, 0x00, 0x00, 0x02, 0x00, 0x00, 0x00,
  0xff, 0xff, 0xff, 0xff, 0x10, 0x00, 0x00, 0x00, 0xac, 0xe5, 0xff, 0xff,
  0x35, 0x00, 0x00, 0x00, 0x73, 0x65, 0x71, 0x75, 0x65, 0x6e, 0x74, 0x69,
  0x61, 0x6c, 0x5f, 0x31, 0x2f, 0x73, 0x69, 0x6d, 0x70, 0x6c, 0x65, 0x5f,
  0x72, 0x6e, 0x6e, 0x5f, 0x31, 0x2f, 0x73, 0x69, 0x6d, 0x70, 0x6c, 0x65,
  0x5f, 0x72, 0x6e, 0x6e, 0x5f, 0x63, 0x65, 0x6c, 0x6c, 0x5f, 0x31, 0x37,
  0x2f, 0x4d, 0x61, 0x74, 0x4d, 0x75, 0x6c, 0x5f, 0x31, 0x00, 0x00, 0x00,
  0x02, 0x00, 0x00, 0x00, 0x01, 0x00, 0x00, 0x00, 0x10, 0x00, 0x00, 0x00,
  0xa6, 0xe6, 0xff, 0xff, 0x00, 0x00, 0x00, 0x01, 0x14, 0x00, 0x00, 0x00,
  0x1c, 0x00, 0x00, 0x00, 0x1c, 0x00, 0x00, 0x00, 0x3e, 0x00, 0x00, 0x00,
  0x4c, 0x00, 0x00, 0x00, 0x02, 0x00, 0x00, 0x00, 0xff, 0xff, 0xff, 0xff,
  0x10, 0x00, 0x00, 0x00, 0x20, 0xe6, 0xff, 0xff, 0x31, 0x00, 0x00, 0x00,
  0x73, 0x65, 0x71, 0x75, 0x65, 0x6e, 0x74, 0x69, 0x61, 0x6c, 0x5f, 0x31,
  0x2f, 0x73, 0x69, 0x6d, 0x70, 0x6c, 0x65, 0x5f, 0x72, 0x6e, 0x6e, 0x5f,
  0x31, 0x2f, 0x73, 0x69, 0x6d, 0x70, 0x6c, 0x65, 0x5f, 0x72, 0x6e, 0x6e,
  0x5f, 0x63, 0x65, 0x6c, 0x6c, 0x5f, 0x31, 0x35, 0x2f, 0x54, 0x61, 0x6e,
  0x68, 0x00, 0x00, 0x00, 0x02, 0x00, 0x00, 0x00, 0x01, 0x00, 0x00, 0x00,
  0x10, 0x00, 0x00, 0x00, 0x16, 0xe7, 0xff, 0xff, 0x00, 0x00, 0x00, 0x01,
  0x14, 0x00, 0x00, 0x00, 0x1c, 0x00, 0x00, 0x00, 0x1c, 0x00, 0x00, 0x00,
  0x3d, 0x00, 0x00, 0x00, 0x4c, 0x00, 0x00, 0x00, 0x02, 0x00, 0x00, 0x00,
  0xff, 0xff, 0xff, 0xff, 0x10, 0x00, 0x00, 0x00, 0x90, 0xe6, 0xff, 0xff,
  0x32, 0x00, 0x00, 0x00, 0x73, 0x65, 0x71, 0x75, 0x65, 0x6e, 0x74, 0x69,
  0x61, 0x6c, 0x5f, 0x31, 0x2f, 0x73, 0x69, 0x6d, 0x70, 0x6c, 0x65, 0x5f,
  0x72, 0x6e, 0x6e, 0x5f, 0x31, 0x2f, 0x73, 0x69, 0x6d, 0x70, 0x6c, 0x65,
  0x5f, 0x72, 0x6e, 0x6e, 0x5f, 0x63, 0x65, 0x6c, 0x6c, 0x5f, 0x31, 0x35,
  0x2f, 0x61, 0x64, 0x64, 0x5f, 0x31, 0x00, 0x00, 0x02, 0x00, 0x00, 0x00,
  0x01, 0x00, 0x00, 0x00, 0x10, 0x00, 0x00, 0x00, 0x86, 0xe7, 0xff, 0xff,
  0x00, 0x00, 0x00, 0x01, 0x14, 0x00, 0x00, 0x00, 0x1c, 0x00, 0x00, 0x00,
  0x1c, 0x00, 0x00, 0x00, 0x3c, 0x00, 0x00, 0x00, 0x50, 0x00, 0x00, 0x00,
  0x02, 0x00, 0x00, 0x00, 0xff, 0xff, 0xff, 0xff, 0x10, 0x00, 0x00, 0x00,
  0x00, 0xe7, 0xff, 0xff, 0x35, 0x00, 0x00, 0x00, 0x73, 0x65, 0x71, 0x75,
  0x65, 0x6e, 0x74, 0x69, 0x61, 0x6c, 0x5f, 0x31, 0x2f, 0x73, 0x69, 0x6d,
  0x70, 0x6c, 0x65, 0x5f, 0x72, 0x6e, 0x6e, 0x5f, 0x31, 0x2f, 0x73, 0x69,
  0x6d, 0x70, 0x6c, 0x65, 0x5f, 0x72, 0x6e, 0x6e, 0x5f, 0x63, 0x65, 0x6c,
  0x6c, 0x5f, 0x31, 0x35, 0x2f, 0x4d, 0x61, 0x74, 0x4d, 0x75, 0x6c, 0x5f,
  0x31, 0x00, 0x00, 0x00, 0x02, 0x00, 0x00, 0x00, 0x01, 0x00, 0x00, 0x00,
  0x10, 0x00, 0x00, 0x00, 0xfa, 0xe7, 0xff, 0xff, 0x00, 0x00, 0x00, 0x01,
  0x14, 0x00, 0x00, 0x00, 0x1c, 0x00, 0x00, 0x00, 0x1c, 0x00, 0x00, 0x00,
  0x3b, 0x00, 0x00, 0x00, 0x4c, 0x00, 0x00, 0x00, 0x02, 0x00, 0x00, 0x00,
  0xff, 0xff, 0xff, 0xff, 0x10, 0x00, 0x00, 0x00, 0x74, 0xe7, 0xff, 0xff,
  0x31, 0x00, 0x00, 0x00, 0x73, 0x65, 0x71, 0x75, 0x65, 0x6e, 0x74, 0x69,
  0x61, 0x6c, 0x5f, 0x31, 0x2f, 0x73, 0x69, 0x6d, 0x70, 0x6c, 0x65, 0x5f,
  0x72, 0x6e, 0x6e, 0x5f, 0x31, 0x2f, 0x73, 0x69, 0x6d, 0x70, 0x6c, 0x65,
  0x5f, 0x72, 0x6e, 0x6e, 0x5f, 0x63, 0x65, 0x6c, 0x6c, 0x5f, 0x31, 0x33,
  0x2f, 0x54, 0x61, 0x6e, 0x68, 0x00, 0x00, 0x00, 0x02, 0x00, 0x00, 0x00,
  0x01, 0x00, 0x00, 0x00, 0x10, 0x00, 0x00, 0x00, 0x6a, 0xe8, 0xff, 0xff,
  0x00, 0x00, 0x00, 0x01, 0x14, 0x00, 0x00, 0x00, 0x1c, 0x00, 0x00, 0x00,
  0x1c, 0x00, 0x00, 0x00, 0x3a, 0x00, 0x00, 0x00, 0x4c, 0x00, 0x00, 0x00,
  0x02, 0x00, 0x00, 0x00, 0xff, 0xff, 0xff, 0xff, 0x10, 0x00, 0x00, 0x00,
  0xe4, 0xe7, 0xff, 0xff, 0x32, 0x00, 0x00, 0x00, 0x73, 0x65, 0x71, 0x75,
  0x65, 0x6e, 0x74, 0x69, 0x61, 0x6c, 0x5f, 0x31, 0x2f, 0x73, 0x69, 0x6d,
  0x70, 0x6c, 0x65, 0x5f, 0x72, 0x6e, 0x6e, 0x5f, 0x31, 0x2f, 0x73, 0x69,
  0x6d, 0x70, 0x6c, 0x65, 0x5f, 0x72, 0x6e, 0x6e, 0x5f, 0x63, 0x65, 0x6c,
  0x6c, 0x5f, 0x31, 0x33, 0x2f, 0x61, 0x64, 0x64, 0x5f, 0x31, 0x00, 0x00,
  0x02, 0x00, 0x00, 0x00, 0x01, 0x00, 0x00, 0x00, 0x10, 0x00, 0x00, 0x00,
  0xda, 0xe8, 0xff, 0xff, 0x00, 0x00, 0x00, 0x01, 0x14, 0x00, 0x00, 0x00,
  0x1c, 0x00, 0x00, 0x00, 0x1c, 0x00, 0x00, 0x00, 0x39, 0x00, 0x00, 0x00,
  0x50, 0x00, 0x00, 0x00, 0x02, 0x00, 0x00, 0x00, 0xff, 0xff, 0xff, 0xff,
  0x10, 0x00, 0x00, 0x00, 0x54, 0xe8, 0xff, 0xff, 0x35, 0x00, 0x00, 0x00,
  0x73, 0x65, 0x71, 0x75, 0x65, 0x6e, 0x74, 0x69, 0x61, 0x6c, 0x5f, 0x31,
  0x2f, 0x73, 0x69, 0x6d, 0x70, 0x6c, 0x65, 0x5f, 0x72, 0x6e, 0x6e, 0x5f,
  0x31, 0x2f, 0x73, 0x69, 0x6d, 0x70, 0x6c, 0x65, 0x5f, 0x72, 0x6e, 0x6e,
  0x5f, 0x63, 0x65, 0x6c, 0x6c, 0x5f, 0x31, 0x33, 0x2f, 0x4d, 0x61, 0x74,
  0x4d, 0x75, 0x6c, 0x5f, 0x31, 0x00, 0x00, 0x00, 0x02, 0x00, 0x00, 0x00,
  0x01, 0x00, 0x00, 0x00, 0x10, 0x00, 0x00, 0x00, 0x4e, 0xe9, 0xff, 0xff,
  0x00, 0x00, 0x00, 0x01, 0x14, 0x00, 0x00, 0x00, 0x1c, 0x00, 0x00, 0x00,
  0x1c, 0x00, 0x00, 0x00, 0x38, 0x00, 0x00, 0x00, 0x4c, 0x00, 0x00, 0x00,
  0x02, 0x00, 0x00, 0x00, 0xff, 0xff, 0xff, 0xff, 0x10, 0x00, 0x00, 0x00,
  0xc8, 0xe8, 0xff, 0xff, 0x31, 0x00, 0x00, 0x00, 0x73, 0x65, 0x71, 0x75,
  0x65, 0x6e, 0x74, 0x69, 0x61, 0x6c, 0x5f, 0x31, 0x2f, 0x73, 0x69, 0x6d,
  0x70, 0x6c, 0x65, 0x5f, 0x72, 0x6e, 0x6e, 0x5f, 0x31, 0x2f, 0x73, 0x69,
  0x6d, 0x70, 0x6c, 0x65, 0x5f, 0x72, 0x6e, 0x6e, 0x5f, 0x63, 0x65, 0x6c,
  0x6c, 0x5f, 0x31, 0x31, 0x2f, 0x54, 0x61, 0x6e, 0x68, 0x00, 0x00, 0x00,
  0x02, 0x00, 0x00, 0x00, 0x01, 0x00, 0x00, 0x00, 0x10, 0x00, 0x00, 0x00,
  0xbe, 0xe9, 0xff, 0xff, 0x00, 0x00, 0x00, 0x01, 0x14, 0x00, 0x00, 0x00,
  0x1c, 0x00, 0x00, 0x00, 0x1c, 0x00, 0x00, 0x00, 0x37, 0x00, 0x00, 0x00,
  0x4c, 0x00, 0x00, 0x00, 0x02, 0x00, 0x00, 0x00, 0xff, 0xff, 0xff, 0xff,
  0x10, 0x00, 0x00, 0x00, 0x38, 0xe9, 0xff, 0xff, 0x32, 0x00, 0x00, 0x00,
  0x73, 0x65, 0x71, 0x75, 0x65, 0x6e, 0x74, 0x69, 0x61, 0x6c, 0x5f, 0x31,
  0x2f, 0x73, 0x69, 0x6d, 0x70, 0x6c, 0x65, 0x5f, 0x72, 0x6e, 0x6e, 0x5f,
  0x31, 0x2f, 0x73, 0x69, 0x6d, 0x70, 0x6c, 0x65, 0x5f, 0x72, 0x6e, 0x6e,
  0x5f, 0x63, 0x65, 0x6c, 0x6c, 0x5f, 0x31, 0x31, 0x2f, 0x61, 0x64, 0x64,
  0x5f, 0x31, 0x00, 0x00, 0x02, 0x00, 0x00, 0x00, 0x01, 0x00, 0x00, 0x00,
  0x10, 0x00, 0x00, 0x00, 0x2e, 0xea, 0xff, 0xff, 0x00, 0x00, 0x00, 0x01,
  0x14, 0x00, 0x00, 0x00, 0x1c, 0x00, 0x00, 0x00, 0x1c, 0x00, 0x00, 0x00,
  0x36, 0x00, 0x00, 0x00, 0x50, 0x00, 0x00, 0x00, 0x02, 0x00, 0x00, 0x00,
  0xff, 0xff, 0xff, 0xff, 0x10, 0x00, 0x00, 0x00, 0xa8, 0xe9, 0xff, 0xff,
  0x35, 0x00, 0x00, 0x00, 0x73, 0x65, 0x71, 0x75, 0x65, 0x6e, 0x74, 0x69,
  0x61, 0x6c, 0x5f, 0x31, 0x2f, 0x73, 0x69, 0x6d, 0x70, 0x6c, 0x65, 0x5f,
  0x72, 0x6e, 0x6e, 0x5f, 0x31, 0x2f, 0x73, 0x69, 0x6d, 0x70, 0x6c, 0x65,
  0x5f, 0x72, 0x6e, 0x6e, 0x5f, 0x63, 0x65, 0x6c, 0x6c, 0x5f, 0x31, 0x31,
  0x2f, 0x4d, 0x61, 0x74, 0x4d, 0x75, 0x6c, 0x5f, 0x31, 0x00, 0x00, 0x00,
  0x02, 0x00, 0x00, 0x00, 0x01, 0x00, 0x00, 0x00, 0x10, 0x00, 0x00, 0x00,
  0xa2, 0xea, 0xff, 0xff, 0x00, 0x00, 0x00, 0x01, 0x14, 0x00, 0x00, 0x00,
  0x1c, 0x00, 0x00, 0x00, 0x1c, 0x00, 0x00, 0x00, 0x35, 0x00, 0x00, 0x00,
  0x4c, 0x00, 0x00, 0x00, 0x02, 0x00, 0x00, 0x00, 0xff, 0xff, 0xff, 0xff,
  0x10, 0x00, 0x00, 0x00, 0x1c, 0xea, 0xff, 0xff, 0x30, 0x00, 0x00, 0x00,
  0x73, 0x65, 0x71, 0x75, 0x65, 0x6e, 0x74, 0x69, 0x61, 0x6c, 0x5f, 0x31,
  0x2f, 0x73, 0x69, 0x6d, 0x70, 0x6c, 0x65, 0x5f, 0x72, 0x6e, 0x6e, 0x5f,
  0x31, 0x2f, 0x73, 0x69, 0x6d, 0x70, 0x6c, 0x65, 0x5f, 0x72, 0x6e, 0x6e,
  0x5f, 0x63, 0x65, 0x6c, 0x6c, 0x5f, 0x39, 0x2f, 0x54, 0x61, 0x6e, 0x68,
  0x00, 0x00, 0x00, 0x00, 0x02, 0x00, 0x00, 0x00, 0x01, 0x00, 0x00, 0x00,
  0x10, 0x00, 0x00, 0x00, 0x12, 0xeb, 0xff, 0xff, 0x00, 0x00, 0x00, 0x01,
  0x14, 0x00, 0x00, 0x00, 0x1c, 0x00, 0x00, 0x00, 0x1c, 0x00, 0x00, 0x00,
  0x34, 0x00, 0x00, 0x00, 0x4c, 0x00, 0x00, 0x00, 0x02, 0x00, 0x00, 0x00,
  0xff, 0xff, 0xff, 0xff, 0x10, 0x00, 0x00, 0x00, 0x8c, 0xea, 0xff, 0xff,
  0x31, 0x00, 0x00, 0x00, 0x73, 0x65, 0x71, 0x75, 0x65, 0x6e, 0x74, 0x69,
  0x61, 0x6c, 0x5f, 0x31, 0x2f, 0x73, 0x69, 0x6d, 0x70, 0x6c, 0x65, 0x5f,
  0x72, 0x6e, 0x6e, 0x5f, 0x31, 0x2f, 0x73, 0x69, 0x6d, 0x70, 0x6c, 0x65,
  0x5f, 0x72, 0x6e, 0x6e, 0x5f, 0x63, 0x65, 0x6c, 0x6c, 0x5f, 0x39, 0x2f,
  0x61, 0x64, 0x64, 0x5f, 0x31, 0x00, 0x00, 0x00, 0x02, 0x00, 0x00, 0x00,
  0x01, 0x00, 0x00, 0x00, 0x10, 0x00, 0x00, 0x00, 0x82, 0xeb, 0xff, 0xff,
  0x00, 0x00, 0x00, 0x01, 0x14, 0x00, 0x00, 0x00, 0x1c, 0x00, 0x00, 0x00,
  0x1c, 0x00, 0x00, 0x00, 0x33, 0x00, 0x00, 0x00, 0x7c, 0x00, 0x00, 0x00,
  0x02, 0x00, 0x00, 0x00, 0xff, 0xff, 0xff, 0xff, 0x10, 0x00, 0x00, 0x00,
  0xfc, 0xea, 0xff, 0xff, 0x62, 0x00, 0x00, 0x00, 0x73, 0x65, 0x71, 0x75,
  0x65, 0x6e, 0x74, 0x69, 0x61, 0x6c, 0x5f, 0x31, 0x2f, 0x73, 0x69, 0x6d,
  0x70, 0x6c, 0x65, 0x5f, 0x72, 0x6e, 0x6e, 0x5f, 0x31, 0x2f, 0x73, 0x69,
  0x6d, 0x70, 0x6c, 0x65, 0x5f, 0x72, 0x6e, 0x6e, 0x5f, 0x63, 0x65, 0x6c,
  0x6c, 0x5f, 0x39, 0x2f, 0x4d, 0x61, 0x74, 0x4d, 0x75, 0x6c, 0x3b, 0x73,
  0x65, 0x71, 0x75, 0x65, 0x6e, 0x74, 0x69, 0x61, 0x6c, 0x5f, 0x31, 0x2f,
  0x73, 0x69, 0x6d, 0x70, 0x6c, 0x65, 0x5f, 0x72, 0x6e, 0x6e, 0x5f, 0x31,
  0x2f, 0x73, 0x69, 0x6d, 0x70, 0x6c, 0x65, 0x5f, 0x72, 0x6e, 0x6e, 0x5f,
  0x63, 0x65, 0x6c, 0x6c, 0x5f, 0x39, 0x2f, 0x61, 0x64, 0x64, 0x00, 0x00,
  0x02, 0x00, 0x00, 0x00, 0x01, 0x00, 0x00, 0x00, 0x10, 0x00, 0x00, 0x00,
  0x22, 0xec, 0xff, 0xff, 0x00, 0x00, 0x00, 0x01, 0x14, 0x00, 0x00, 0x00,
  0x1c, 0x00, 0x00, 0x00, 0x1c, 0x00, 0x00, 0x00, 0x32, 0x00, 0x00, 0x00,
  0x50, 0x00, 0x00, 0x00, 0x02, 0x00, 0x00, 0x00, 0xff, 0xff, 0xff, 0xff,
  0x10, 0x00, 0x00, 0x00, 0x9c, 0xeb, 0xff, 0xff, 0x34, 0x00, 0x00, 0x00,
  0x73, 0x65, 0x71, 0x75, 0x65, 0x6e, 0x74, 0x69, 0x61, 0x6c, 0x5f, 0x31,
  0x2f, 0x73, 0x69, 0x6d, 0x70, 0x6c, 0x65, 0x5f, 0x72, 0x6e, 0x6e, 0x5f,
  0x31, 0x2f, 0x73, 0x69, 0x6d, 0x70, 0x6c, 0x65, 0x5f, 0x72, 0x6e, 0x6e,
  0x5f, 0x63, 0x65, 0x6c, 0x6c, 0x5f, 0x39, 0x2f, 0x4d, 0x61, 0x74, 0x4d,
  0x75, 0x6c, 0x5f, 0x31, 0x00, 0x00, 0x00, 0x00, 0x02, 0x00, 0x00, 0x00,
  0x01, 0x00, 0x00, 0x00, 0x10, 0x00, 0x00, 0x00, 0x96, 0xec, 0xff, 0xff,
  0x00, 0x00, 0x00, 0x01, 0x14, 0x00, 0x00, 0x00, 0x1c, 0x00, 0x00, 0x00,
  0x1c, 0x00, 0x00, 0x00, 0x31, 0x00, 0x00, 0x00, 0x4c, 0x00, 0x00, 0x00,
  0x02, 0x00, 0x00, 0x00, 0xff, 0xff, 0xff, 0xff, 0x10, 0x00, 0x00, 0x00,
  0x10, 0xec, 0xff, 0xff, 0x30, 0x00, 0x00, 0x00, 0x73, 0x65, 0x71, 0x75,
  0x65, 0x6e, 0x74, 0x69, 0x61, 0x6c, 0x5f, 0x31, 0x2f, 0x73, 0x69, 0x6d,
  0x70, 0x6c, 0x65, 0x5f, 0x72, 0x6e, 0x6e, 0x5f, 0x31, 0x2f, 0x73, 0x69,
  0x6d, 0x70, 0x6c, 0x65, 0x5f, 0x72, 0x6e, 0x6e, 0x5f, 0x63, 0x65, 0x6c,
  0x6c, 0x5f, 0x37, 0x2f, 0x54, 0x61, 0x6e, 0x68, 0x00, 0x00, 0x00, 0x00,
  0x02, 0x00, 0x00, 0x00, 0x01, 0x00, 0x00, 0x00, 0x10, 0x00, 0x00, 0x00,
  0x06, 0xed, 0xff, 0xff, 0x00, 0x00, 0x00, 0x01, 0x14, 0x00, 0x00, 0x00,
  0x1c, 0x00, 0x00, 0x00, 0x1c, 0x00, 0x00, 0x00, 0x30, 0x00, 0x00, 0x00,
  0x4c, 0x00, 0x00, 0x00, 0x02, 0x00, 0x00, 0x00, 0xff, 0xff, 0xff, 0xff,
  0x10, 0x00, 0x00, 0x00, 0x80, 0xec, 0xff, 0xff, 0x31, 0x00, 0x00, 0x00,
  0x73, 0x65, 0x71, 0x75, 0x65, 0x6e, 0x74, 0x69, 0x61, 0x6c, 0x5f, 0x31,
  0x2f, 0x73, 0x69, 0x6d, 0x70, 0x6c, 0x65, 0x5f, 0x72, 0x6e, 0x6e, 0x5f,
  0x31, 0x2f, 0x73, 0x69, 0x6d, 0x70, 0x6c, 0x65, 0x5f, 0x72, 0x6e, 0x6e,
  0x5f, 0x63, 0x65, 0x6c, 0x6c, 0x5f, 0x37, 0x2f, 0x61, 0x64, 0x64, 0x5f,
  0x31, 0x00, 0x00, 0x00, 0x02, 0x00, 0x00, 0x00, 0x01, 0x00, 0x00, 0x00,
  0x10, 0x00, 0x00, 0x00, 0x76, 0xed, 0xff, 0xff, 0x00, 0x00, 0x00, 0x01,
  0x14, 0x00, 0x00, 0x00, 0x1c, 0x00, 0x00, 0x00, 0x1c, 0x00, 0x00, 0x00,
  0x2f, 0x00, 0x00, 0x00, 0x7c, 0x00, 0x00, 0x00, 0x02, 0x00, 0x00, 0x00,
  0xff, 0xff, 0xff, 0xff, 0x10, 0x00, 0x00, 0x00, 0xf0, 0xec, 0xff, 0xff,
  0x62, 0x00, 0x00, 0x00, 0x73, 0x65, 0x71, 0x75, 0x65, 0x6e, 0x74, 0x69,
  0x61, 0x6c, 0x5f, 0x31, 0x2f, 0x73, 0x69, 0x6d, 0x70, 0x6c, 0x65, 0x5f,
  0x72, 0x6e, 0x6e, 0x5f, 0x31, 0x2f, 0x73, 0x69, 0x6d, 0x70, 0x6c, 0x65,
  0x5f, 0x72, 0x6e, 0x6e, 0x5f, 0x63, 0x65, 0x6c, 0x6c, 0x5f, 0x37, 0x2f,
  0x4d, 0x61, 0x74, 0x4d, 0x75, 0x6c, 0x3b, 0x73, 0x65, 0x71, 0x75, 0x65,
  0x6e, 0x74, 0x69, 0x61, 0x6c, 0x5f, 0x31, 0x2f, 0x73, 0x69, 0x6d, 0x70,
  0x6c, 0x65, 0x5f, 0x72, 0x6e, 0x6e, 0x5f, 0x31, 0x2f, 0x73, 0x69, 0x6d,
  0x70, 0x6c, 0x65, 0x5f, 0x72, 0x6e, 0x6e, 0x5f, 0x63, 0x65, 0x6c, 0x6c,
  0x5f, 0x37, 0x2f, 0x61, 0x64, 0x64, 0x00, 0x00, 0x02, 0x00, 0x00, 0x00,
  0x01, 0x00, 0x00, 0x00, 0x10, 0x00, 0x00, 0x00, 0x16, 0xee, 0xff, 0xff,
  0x00, 0x00, 0x00, 0x01, 0x14, 0x00, 0x00, 0x00, 0x1c, 0x00, 0x00, 0x00,
  0x1c, 0x00, 0x00, 0x00, 0x2e, 0x00, 0x00, 0x00, 0x50, 0x00, 0x00, 0x00,
  0x02, 0x00, 0x00, 0x00, 0xff, 0xff, 0xff, 0xff, 0x10, 0x00, 0x00, 0x00,
  0x90, 0xed, 0xff, 0xff, 0x34, 0x00, 0x00, 0x00, 0x73, 0x65, 0x71, 0x75,
  0x65, 0x6e, 0x74, 0x69, 0x61, 0x6c, 0x5f, 0x31, 0x2f, 0x73, 0x69, 0x6d,
  0x70, 0x6c, 0x65, 0x5f, 0x72, 0x6e, 0x6e, 0x5f, 0x31, 0x2f, 0x73, 0x69,
  0x6d, 0x70, 0x6c, 0x65, 0x5f, 0x72, 0x6e, 0x6e, 0x5f, 0x63, 0x65, 0x6c,
  0x6c, 0x5f, 0x37, 0x2f, 0x4d, 0x61, 0x74, 0x4d, 0x75, 0x6c, 0x5f, 0x31,
  0x00, 0x00, 0x00, 0x00, 0x02, 0x00, 0x00, 0x00, 0x01, 0x00, 0x00, 0x00,
  0x10, 0x00, 0x00, 0x00, 0x8a, 0xee, 0xff, 0xff, 0x00, 0x00, 0x00, 0x01,
  0x14, 0x00, 0x00, 0x00, 0x1c, 0x00, 0x00, 0x00, 0x1c, 0x00, 0x00, 0x00,
  0x2d, 0x00, 0x00, 0x00, 0x4c, 0x00, 0x00, 0x00, 0x02, 0x00, 0x00, 0x00,
  0xff, 0xff, 0xff, 0xff, 0x10, 0x00, 0x00, 0x00, 0x04, 0xee, 0xff, 0xff,
  0x30, 0x00, 0x00, 0x00, 0x73, 0x65, 0x71, 0x75, 0x65, 0x6e, 0x74, 0x69,
  0x61, 0x6c, 0x5f, 0x31, 0x2f, 0x73, 0x69, 0x6d, 0x70, 0x6c, 0x65, 0x5f,
  0x72, 0x6e, 0x6e, 0x5f, 0x31, 0x2f, 0x73, 0x69, 0x6d, 0x70, 0x6c, 0x65,
  0x5f, 0x72, 0x6e, 0x6e, 0x5f, 0x63, 0x65, 0x6c, 0x6c, 0x5f, 0x35, 0x2f,
  0x54, 0x61, 0x6e, 0x68, 0x00, 0x00, 0x00, 0x00, 0x02, 0x00, 0x00, 0x00,
  0x01, 0x00, 0x00, 0x00, 0x10, 0x00, 0x00, 0x00, 0xfa, 0xee, 0xff, 0xff,
  0x00, 0x00, 0x00, 0x01, 0x14, 0x00, 0x00, 0x00, 0x1c, 0x00, 0x00, 0x00,
  0x1c, 0x00, 0x00, 0x00, 0x2c, 0x00, 0x00, 0x00, 0x4c, 0x00, 0x00, 0x00,
  0x02, 0x00, 0x00, 0x00, 0xff, 0xff, 0xff, 0xff, 0x10, 0x00, 0x00, 0x00,
  0x74, 0xee, 0xff, 0xff, 0x31, 0x00, 0x00, 0x00, 0x73, 0x65, 0x71, 0x75,
  0x65, 0x6e, 0x74, 0x69, 0x61, 0x6c, 0x5f, 0x31, 0x2f, 0x73, 0x69, 0x6d,
  0x70, 0x6c, 0x65, 0x5f, 0x72, 0x6e, 0x6e, 0x5f, 0x31, 0x2f, 0x73, 0x69,
  0x6d, 0x70, 0x6c, 0x65, 0x5f, 0x72, 0x6e, 0x6e, 0x5f, 0x63, 0x65, 0x6c,
  0x6c, 0x5f, 0x35, 0x2f, 0x61, 0x64, 0x64, 0x5f, 0x31, 0x00, 0x00, 0x00,
  0x02, 0x00, 0x00, 0x00, 0x01, 0x00, 0x00, 0x00, 0x10, 0x00, 0x00, 0x00,
  0x6a, 0xef, 0xff, 0xff, 0x00, 0x00, 0x00, 0x01, 0x14, 0x00, 0x00, 0x00,
  0x1c, 0x00, 0x00, 0x00, 0x1c, 0x00, 0x00, 0x00, 0x2b, 0x00, 0x00, 0x00,
  0x7c, 0x00, 0x00, 0x00, 0x02, 0x00, 0x00, 0x00, 0xff, 0xff, 0xff, 0xff,
  0x10, 0x00, 0x00, 0x00, 0xe4, 0xee, 0xff, 0xff, 0x62, 0x00, 0x00, 0x00,
  0x73, 0x65, 0x71, 0x75, 0x65, 0x6e, 0x74, 0x69, 0x61, 0x6c, 0x5f, 0x31,
  0x2f, 0x73, 0x69, 0x6d, 0x70, 0x6c, 0x65, 0x5f, 0x72, 0x6e, 0x6e, 0x5f,
  0x31, 0x2f, 0x73, 0x69, 0x6d, 0x70, 0x6c, 0x65, 0x5f, 0x72, 0x6e, 0x6e,
  0x5f, 0x63, 0x65, 0x6c, 0x6c, 0x5f, 0x35, 0x2f, 0x4d, 0x61, 0x74, 0x4d,
  0x75, 0x6c, 0x3b, 0x73, 0x65, 0x71, 0x75, 0x65, 0x6e, 0x74, 0x69, 0x61,
  0x6c, 0x5f, 0x31, 0x2f, 0x73, 0x69, 0x6d, 0x70, 0x6c, 0x65, 0x5f, 0x72,
  0x6e, 0x6e, 0x5f, 0x31, 0x2f, 0x73, 0x69, 0x6d, 0x70, 0x6c, 0x65, 0x5f,
  0x72, 0x6e, 0x6e, 0x5f, 0x63, 0x65, 0x6c, 0x6c, 0x5f, 0x35, 0x2f, 0x61,
  0x64, 0x64, 0x00, 0x00, 0x02, 0x00, 0x00, 0x00, 0x01, 0x00, 0x00, 0x00,
  0x10, 0x00, 0x00, 0x00, 0x0a, 0xf0, 0xff, 0xff, 0x00, 0x00, 0x00, 0x01,
  0x14, 0x00, 0x00, 0x00, 0x1c, 0x00, 0x00, 0x00, 0x1c, 0x00, 0x00, 0x00,
  0x2a, 0x00, 0x00, 0x00, 0x50, 0x00, 0x00, 0x00, 0x02, 0x00, 0x00, 0x00,
  0xff, 0xff, 0xff, 0xff, 0x10, 0x00, 0x00, 0x00, 0x84, 0xef, 0xff, 0xff,
  0x34, 0x00, 0x00, 0x00, 0x73, 0x65, 0x71, 0x75, 0x65, 0x6e, 0x74, 0x69,
  0x61, 0x6c, 0x5f, 0x31, 0x2f, 0x73, 0x69, 0x6d, 0x70, 0x6c, 0x65, 0x5f,
  0x72, 0x6e, 0x6e, 0x5f, 0x31, 0x2f, 0x73, 0x69, 0x6d, 0x70, 0x6c, 0x65,
  0x5f, 0x72, 0x6e, 0x6e, 0x5f, 0x63, 0x65, 0x6c, 0x6c, 0x5f, 0x35, 0x2f,
  0x4d, 0x61, 0x74, 0x4d, 0x75, 0x6c, 0x5f, 0x31, 0x00, 0x00, 0x00, 0x00,
  0x02, 0x00, 0x00, 0x00, 0x01, 0x00, 0x00, 0x00, 0x10, 0x00, 0x00, 0x00,
  0x7e, 0xf0, 0xff, 0xff, 0x00, 0x00, 0x00, 0x01, 0x14, 0x00, 0x00, 0x00,
  0x1c, 0x00, 0x00, 0x00, 0x1c, 0x00, 0x00, 0x00, 0x29, 0x00, 0x00, 0x00,
  0x4c, 0x00, 0x00, 0x00, 0x02, 0x00, 0x00, 0x00, 0xff, 0xff, 0xff, 0xff,
  0x10, 0x00, 0x00, 0x00, 0xf8, 0xef, 0xff, 0xff, 0x30, 0x00, 0x00, 0x00,
  0x73, 0x65, 0x71, 0x75, 0x65, 0x6e, 0x74, 0x69, 0x61, 0x6c, 0x5f, 0x31,
  0x2f, 0x73, 0x69, 0x6d, 0x70, 0x6c, 0x65, 0x5f, 0x72, 0x6e, 0x6e, 0x5f,
  0x31, 0x2f, 0x73, 0x69, 0x6d, 0x70, 0x6c, 0x65, 0x5f, 0x72, 0x6e, 0x6e,
  0x5f, 0x63, 0x65, 0x6c, 0x6c, 0x5f, 0x33, 0x2f, 0x54, 0x61, 0x6e, 0x68,
  0x00, 0x00, 0x00, 0x00, 0x02, 0x00, 0x00, 0x00, 0x01, 0x00, 0x00, 0x00,
  0x10, 0x00, 0x00, 0x00, 0xee, 0xf0, 0xff, 0xff, 0x00, 0x00, 0x00, 0x01,
  0x14, 0x00, 0x00, 0x00, 0x1c, 0x00, 0x00, 0x00, 0x1c, 0x00, 0x00, 0x00,
  0x28, 0x00, 0x00, 0x00, 0x4c, 0x00, 0x00, 0x00, 0x02, 0x00, 0x00, 0x00,
  0xff, 0xff, 0xff, 0xff, 0x10, 0x00, 0x00, 0x00, 0x68, 0xf0, 0xff, 0xff,
  0x31, 0x00, 0x00, 0x00, 0x73, 0x65, 0x71, 0x75, 0x65, 0x6e, 0x74, 0x69,
  0x61, 0x6c, 0x5f, 0x31, 0x2f, 0x73, 0x69, 0x6d, 0x70, 0x6c, 0x65, 0x5f,
  0x72, 0x6e, 0x6e, 0x5f, 0x31, 0x2f, 0x73, 0x69, 0x6d, 0x70, 0x6c, 0x65,
  0x5f, 0x72, 0x6e, 0x6e, 0x5f, 0x63, 0x65, 0x6c, 0x6c, 0x5f, 0x33, 0x2f,
  0x61, 0x64, 0x64, 0x5f, 0x31, 0x00, 0x00, 0x00, 0x02, 0x00, 0x00, 0x00,
  0x01, 0x00, 0x00, 0x00, 0x10, 0x00, 0x00, 0x00, 0x5e, 0xf1, 0xff, 0xff,
  0x00, 0x00, 0x00, 0x01, 0x14, 0x00, 0x00, 0x00, 0x1c, 0x00, 0x00, 0x00,
  0x1c, 0x00, 0x00, 0x00, 0x27, 0x00, 0x00, 0x00, 0x7c, 0x00, 0x00, 0x00,
  0x02, 0x00, 0x00, 0x00, 0xff, 0xff, 0xff, 0xff, 0x10, 0x00, 0x00, 0x00,
  0xd8, 0xf0, 0xff, 0xff, 0x62, 0x00, 0x00, 0x00, 0x73, 0x65, 0x71, 0x75,
  0x65, 0x6e, 0x74, 0x69, 0x61, 0x6c, 0x5f, 0x31, 0x2f, 0x73, 0x69, 0x6d,
  0x70, 0x6c, 0x65, 0x5f, 0x72, 0x6e, 0x6e, 0x5f, 0x31, 0x2f, 0x73, 0x69,
  0x6d, 0x70, 0x6c, 0x65, 0x5f, 0x72, 0x6e, 0x6e, 0x5f, 0x63, 0x65, 0x6c,
  0x6c, 0x5f, 0x33, 0x2f, 0x4d, 0x61, 0x74, 0x4d, 0x75, 0x6c, 0x3b, 0x73,
  0x65, 0x71, 0x75, 0x65, 0x6e, 0x74, 0x69, 0x61, 0x6c, 0x5f, 0x31, 0x2f,
  0x73, 0x69, 0x6d, 0x70, 0x6c, 0x65, 0x5f, 0x72, 0x6e, 0x6e, 0x5f, 0x31,
  0x2f, 0x73, 0x69, 0x6d, 0x70, 0x6c, 0x65, 0x5f, 0x72, 0x6e, 0x6e, 0x5f,
  0x63, 0x65, 0x6c, 0x6c, 0x5f, 0x33, 0x2f, 0x61, 0x64, 0x64, 0x00, 0x00,
  0x02, 0x00, 0x00, 0x00, 0x01, 0x00, 0x00, 0x00, 0x10, 0x00, 0x00, 0x00,
  0xfe, 0xf1, 0xff, 0xff, 0x00, 0x00, 0x00, 0x01, 0x14, 0x00, 0x00, 0x00,
  0x1c, 0x00, 0x00, 0x00, 0x1c, 0x00, 0x00, 0x00, 0x26, 0x00, 0x00, 0x00,
  0x80, 0x00, 0x00, 0x00, 0x02, 0x00, 0x00, 0x00, 0xff, 0xff, 0xff, 0xff,
  0x10, 0x00, 0x00, 0x00, 0x78, 0xf1, 0xff, 0xff, 0x64, 0x00, 0x00, 0x00,
  0x73, 0x65, 0x71, 0x75, 0x65, 0x6e, 0x74, 0x69, 0x61, 0x6c, 0x5f, 0x31,
  0x2f, 0x73, 0x69, 0x6d, 0x70, 0x6c, 0x65, 0x5f, 0x72, 0x6e, 0x6e, 0x5f,
  0x31, 0x2f, 0x73, 0x69, 0x6d, 0x70, 0x6c, 0x65, 0x5f, 0x72, 0x6e, 0x6e,
  0x5f, 0x63, 0x65, 0x6c, 0x6c, 0x5f, 0x31, 0x39, 0x2f, 0x4d, 0x61, 0x74,
  0x4d, 0x75, 0x6c, 0x3b, 0x73, 0x65, 0x71, 0x75, 0x65, 0x6e, 0x74, 0x69,
  0x61, 0x6c, 0x5f, 0x31, 0x2f, 0x73, 0x69, 0x6d, 0x70, 0x6c, 0x65, 0x5f,
  0x72, 0x6e, 0x6e, 0x5f, 0x31, 0x2f, 0x73, 0x69, 0x6d, 0x70, 0x6c, 0x65,
  0x5f, 0x72, 0x6e, 0x6e, 0x5f, 0x63, 0x65, 0x6c, 0x6c, 0x5f, 0x31, 0x39,
  0x2f, 0x61, 0x64, 0x64, 0x00, 0x00, 0x00, 0x00, 0x02, 0x00, 0x00, 0x00,
  0x01, 0x00, 0x00, 0x00, 0x10, 0x00, 0x00, 0x00, 0xa2, 0xf2, 0xff, 0xff,
  0x00, 0x00, 0x00, 0x01, 0x14, 0x00, 0x00, 0x00, 0x1c, 0x00, 0x00, 0x00,
  0x1c, 0x00, 0x00, 0x00, 0x25, 0x00, 0x00, 0x00, 0x80, 0x00, 0x00, 0x00,
  0x02, 0x00, 0x00, 0x00, 0xff, 0xff, 0xff, 0xff, 0x10, 0x00, 0x00, 0x00,
  0x1c, 0xf2, 0xff, 0xff, 0x64, 0x00, 0x00, 0x00, 0x73, 0x65, 0x71, 0x75,
  0x65, 0x6e, 0x74, 0x69, 0x61, 0x6c, 0x5f, 0x31, 0x2f, 0x73, 0x69, 0x6d,
  0x70, 0x6c, 0x65, 0x5f, 0x72, 0x6e, 0x6e, 0x5f, 0x31, 0x2f, 0x73, 0x69,
  0x6d, 0x70, 0x6c, 0x65, 0x5f, 0x72, 0x6e, 0x6e, 0x5f, 0x63, 0x65, 0x6c,
  0x6c, 0x5f, 0x31, 0x37, 0x2f, 0x4d, 0x61, 0x74, 0x4d, 0x75, 0x6c, 0x3b,
  0x73, 0x65, 0x71, 0x75, 0x65, 0x6e, 0x74, 0x69, 0x61, 0x6c, 0x5f, 0x31,
  0x2f, 0x73, 0x69, 0x6d, 0x70, 0x6c, 0x65, 0x5f, 0x72, 0x6e, 0x6e, 0x5f,
  0x31, 0x2f, 0x73, 0x69, 0x6d, 0x70, 0x6c, 0x65, 0x5f, 0x72, 0x6e, 0x6e,
  0x5f, 0x63, 0x65, 0x6c, 0x6c, 0x5f, 0x31, 0x37, 0x2f, 0x61, 0x64, 0x64,
  0x00, 0x00, 0x00, 0x00, 0x02, 0x00, 0x00, 0x00, 0x01, 0x00, 0x00, 0x00,
  0x10, 0x00, 0x00, 0x00, 0x46, 0xf3, 0xff, 0xff, 0x00, 0x00, 0x00, 0x01,
  0x14, 0x00, 0x00, 0x00, 0x1c, 0x00, 0x00, 0x00, 0x1c, 0x00, 0x00, 0x00,
  0x24, 0x00, 0x00, 0x00, 0x80, 0x00, 0x00, 0x00, 0x02, 0x00, 0x00, 0x00,
  0xff, 0xff, 0xff, 0xff, 0x10, 0x00, 0x00, 0x00, 0xc0, 0xf2, 0xff, 0xff,
  0x64, 0x00, 0x00, 0x00, 0x73, 0x65, 0x71, 0x75, 0x65, 0x6e, 0x74, 0x69,
  0x61, 0x6c, 0x5f, 0x31, 0x2f, 0x73, 0x69, 0x6d, 0x70, 0x6c, 0x65, 0x5f,
  0x72, 0x6e, 0x6e, 0x5f, 0x31, 0x2f, 0x73, 0x69, 0x6d, 0x70, 0x6c, 0x65,
  0x5f, 0x72, 0x6e, 0x6e, 0x5f, 0x63, 0x65, 0x6c, 0x6c, 0x5f, 0x31, 0x35,
  0x2f, 0x4d, 0x61, 0x74, 0x4d, 0x75, 0x6c, 0x3b, 0x73, 0x65, 0x71, 0x75,
  0x65, 0x6e, 0x74, 0x69, 0x61, 0x6c, 0x5f, 0x31, 0x2f, 0x73, 0x69, 0x6d,
  0x70, 0x6c, 0x65, 0x5f, 0x72, 0x6e, 0x6e, 0x5f, 0x31, 0x2f, 0x73, 0x69,
  0x6d, 0x70, 0x6c, 0x65, 0x5f, 0x72, 0x6e, 0x6e, 0x5f, 0x63, 0x65, 0x6c,
  0x6c, 0x5f, 0x31, 0x35, 0x2f, 0x61, 0x64, 0x64, 0x00, 0x00, 0x00, 0x00,
  0x02, 0x00, 0x00, 0x00, 0x01, 0x00, 0x00, 0x00, 0x10, 0x00, 0x00, 0x00,
  0xea, 0xf3, 0xff, 0xff, 0x00, 0x00, 0x00, 0x01, 0x14, 0x00, 0x00, 0x00,
  0x1c, 0x00, 0x00, 0x00, 0x1c, 0x00, 0x00, 0x00, 0x23, 0x00, 0x00, 0x00,
  0x80, 0x00, 0x00, 0x00, 0x02, 0x00, 0x00, 0x00, 0xff, 0xff, 0xff, 0xff,
  0x10, 0x00, 0x00, 0x00, 0x64, 0xf3, 0xff, 0xff, 0x64, 0x00, 0x00, 0x00,
  0x73, 0x65, 0x71, 0x75, 0x65, 0x6e, 0x74, 0x69, 0x61, 0x6c, 0x5f, 0x31,
  0x2f, 0x73, 0x69, 0x6d, 0x70, 0x6c, 0x65, 0x5f, 0x72, 0x6e, 0x6e, 0x5f,
  0x31, 0x2f, 0x73, 0x69, 0x6d, 0x70, 0x6c, 0x65, 0x5f, 0x72, 0x6e, 0x6e,
  0x5f, 0x63, 0x65, 0x6c, 0x6c, 0x5f, 0x31, 0x33, 0x2f, 0x4d, 0x61, 0x74,
  0x4d, 0x75, 0x6c, 0x3b, 0x73, 0x65, 0x71, 0x75, 0x65, 0x6e, 0x74, 0x69,
  0x61, 0x6c, 0x5f, 0x31, 0x2f, 0x73, 0x69, 0x6d, 0x70, 0x6c, 0x65, 0x5f,
  0x72, 0x6e, 0x6e, 0x5f, 0x31, 0x2f, 0x73, 0x69, 0x6d, 0x70, 0x6c, 0x65,
  0x5f, 0x72, 0x6e, 0x6e, 0x5f, 0x63, 0x65, 0x6c, 0x6c, 0x5f, 0x31, 0x33,
  0x2f, 0x61, 0x64, 0x64, 0x00, 0x00, 0x00, 0x00, 0x02, 0x00, 0x00, 0x00,
  0x01, 0x00, 0x00, 0x00, 0x10, 0x00, 0x00, 0x00, 0x8e, 0xf4, 0xff, 0xff,
  0x00, 0x00, 0x00, 0x01, 0x14, 0x00, 0x00, 0x00, 0x1c, 0x00, 0x00, 0x00,
  0x1c, 0x00, 0x00, 0x00, 0x22, 0x00, 0x00, 0x00, 0x80, 0x00, 0x00, 0x00,
  0x02, 0x00, 0x00, 0x00, 0xff, 0xff, 0xff, 0xff, 0x10, 0x00, 0x00, 0x00,
  0x08, 0xf4, 0xff, 0xff, 0x64, 0x00, 0x00, 0x00, 0x73, 0x65, 0x71, 0x75,
  0x65, 0x6e, 0x74, 0x69, 0x61, 0x6c, 0x5f, 0x31, 0x2f, 0x73, 0x69, 0x6d,
  0x70, 0x6c, 0x65, 0x5f, 0x72, 0x6e, 0x6e, 0x5f, 0x31, 0x2f, 0x73, 0x69,
  0x6d, 0x70, 0x6c, 0x65, 0x5f, 0x72, 0x6e, 0x6e, 0x5f, 0x63, 0x65, 0x6c,
  0x6c, 0x5f, 0x31, 0x31, 0x2f, 0x4d, 0x61, 0x74, 0x4d, 0x75, 0x6c, 0x3b,
  0x73, 0x65, 0x71, 0x75, 0x65, 0x6e, 0x74, 0x69, 0x61, 0x6c, 0x5f, 0x31,
  0x2f, 0x73, 0x69, 0x6d, 0x70, 0x6c, 0x65, 0x5f, 0x72, 0x6e, 0x6e, 0x5f,
  0x31, 0x2f, 0x73, 0x69, 0x6d, 0x70, 0x6c, 0x65, 0x5f, 0x72, 0x6e, 0x6e,
  0x5f, 0x63, 0x65, 0x6c, 0x6c, 0x5f, 0x31, 0x31, 0x2f, 0x61, 0x64, 0x64,
  0x00, 0x00, 0x00, 0x00, 0x02, 0x00, 0x00, 0x00, 0x01, 0x00, 0x00, 0x00,
  0x10, 0x00, 0x00, 0x00, 0x32, 0xf5, 0xff, 0xff, 0x00, 0x00, 0x00, 0x01,
  0x14, 0x00, 0x00, 0x00, 0x1c, 0x00, 0x00, 0x00, 0x1c, 0x00, 0x00, 0x00,
  0x21, 0x00, 0x00, 0x00, 0x50, 0x00, 0x00, 0x00, 0x02, 0x00, 0x00, 0x00,
  0xff, 0xff, 0xff, 0xff, 0x10, 0x00, 0x00, 0x00, 0xac, 0xf4, 0xff, 0xff,
  0x34, 0x00, 0x00, 0x00, 0x73, 0x65, 0x71, 0x75, 0x65, 0x6e, 0x74, 0x69,
  0x61, 0x6c, 0x5f, 0x31, 0x2f, 0x73, 0x69, 0x6d, 0x70, 0x6c, 0x65, 0x5f,
  0x72, 0x6e, 0x6e, 0x5f, 0x31, 0x2f, 0x73, 0x69, 0x6d, 0x70, 0x6c, 0x65,
  0x5f, 0x72, 0x6e, 0x6e, 0x5f, 0x63, 0x65, 0x6c, 0x6c, 0x5f, 0x33, 0x2f,
  0x4d, 0x61, 0x74, 0x4d, 0x75, 0x6c, 0x5f, 0x31, 0x00, 0x00, 0x00, 0x00,
  0x02, 0x00, 0x00, 0x00, 0x01, 0x00, 0x00, 0x00, 0x10, 0x00, 0x00, 0x00,
  0xa6, 0xf5, 0xff, 0xff, 0x00, 0x00, 0x00, 0x01, 0x14, 0x00, 0x00, 0x00,
  0x1c, 0x00, 0x00, 0x00, 0x1c, 0x00, 0x00, 0x00, 0x20, 0x00, 0x00, 0x00,
  0x4c, 0x00, 0x00, 0x00, 0x02, 0x00, 0x00, 0x00, 0xff, 0xff, 0xff, 0xff,
  0x10, 0x00, 0x00, 0x00, 0x20, 0xf5, 0xff, 0xff, 0x30, 0x00, 0x00, 0x00,
  0x73, 0x65, 0x71, 0x75, 0x65, 0x6e, 0x74, 0x69, 0x61, 0x6c, 0x5f, 0x31,
  0x2f, 0x73, 0x69, 0x6d, 0x70, 0x6c, 0x65, 0x5f, 0x72, 0x6e, 0x6e, 0x5f,
  0x31, 0x2f, 0x73, 0x69, 0x6d, 0x70, 0x6c, 0x65, 0x5f, 0x72, 0x6e, 0x6e,
  0x5f, 0x63, 0x65, 0x6c, 0x6c, 0x5f, 0x31, 0x2f, 0x54, 0x61, 0x6e, 0x68,
  0x00, 0x00, 0x00, 0x00, 0x02, 0x00, 0x00, 0x00, 0x01, 0x00, 0x00, 0x00,
  0x10, 0x00, 0x00, 0x00, 0x16, 0xf6, 0xff, 0xff, 0x00, 0x00, 0x00, 0x01,
  0x14, 0x00, 0x00, 0x00, 0x1c, 0x00, 0x00, 0x00, 0x1c, 0x00, 0x00, 0x00,
  0x1f, 0x00, 0x00, 0x00, 0x4c, 0x00, 0x00, 0x00, 0x02, 0x00, 0x00, 0x00,
  0xff, 0xff, 0xff, 0xff, 0x10, 0x00, 0x00, 0x00, 0x90, 0xf5, 0xff, 0xff,
  0x31, 0x00, 0x00, 0x00, 0x73, 0x65, 0x71, 0x75, 0x65, 0x6e, 0x74, 0x69,
  0x61, 0x6c, 0x5f, 0x31, 0x2f, 0x73, 0x69, 0x6d, 0x70, 0x6c, 0x65, 0x5f,
  0x72, 0x6e, 0x6e, 0x5f, 0x31, 0x2f, 0x73, 0x69, 0x6d, 0x70, 0x6c, 0x65,
  0x5f, 0x72, 0x6e, 0x6e, 0x5f, 0x63, 0x65, 0x6c, 0x6c, 0x5f, 0x31, 0x2f,
  0x61, 0x64, 0x64, 0x5f, 0x31, 0x00, 0x00, 0x00, 0x02, 0x00, 0x00, 0x00,
  0x01, 0x00, 0x00, 0x00, 0x10, 0x00, 0x00, 0x00, 0x86, 0xf6, 0xff, 0xff,
  0x00, 0x00, 0x00, 0x01, 0x14, 0x00, 0x00, 0x00, 0x1c, 0x00, 0x00, 0x00,
  0x1c, 0x00, 0x00, 0x00, 0x1e, 0x00, 0x00, 0x00, 0x7c, 0x00, 0x00, 0x00,
  0x02, 0x00, 0x00, 0x00, 0xff, 0xff, 0xff, 0xff, 0x10, 0x00, 0x00, 0x00,
  0x00, 0xf6, 0xff, 0xff, 0x62, 0x00, 0x00, 0x00, 0x73, 0x65, 0x71, 0x75,
  0x65, 0x6e, 0x74, 0x69, 0x61, 0x6c, 0x5f, 0x31, 0x2f, 0x73, 0x69, 0x6d,
  0x70, 0x6c, 0x65, 0x5f, 0x72, 0x6e, 0x6e, 0x5f, 0x31, 0x2f, 0x73, 0x69,
  0x6d, 0x70, 0x6c, 0x65, 0x5f, 0x72, 0x6e, 0x6e, 0x5f, 0x63, 0x65, 0x6c,
  0x6c, 0x5f, 0x31, 0x2f, 0x4d, 0x61, 0x74, 0x4d, 0x75, 0x6c, 0x3b, 0x73,
  0x65, 0x71, 0x75, 0x65, 0x6e, 0x74, 0x69, 0x61, 0x6c, 0x5f, 0x31, 0x2f,
  0x73, 0x69, 0x6d, 0x70, 0x6c, 0x65, 0x5f, 0x72, 0x6e, 0x6e, 0x5f, 0x31,
  0x2f, 0x73, 0x69, 0x6d, 0x70, 0x6c, 0x65, 0x5f, 0x72, 0x6e, 0x6e, 0x5f,
  0x63, 0x65, 0x6c, 0x6c, 0x5f, 0x31, 0x2f, 0x61, 0x64, 0x64, 0x00, 0x00,
  0x02, 0x00, 0x00, 0x00, 0x01, 0x00, 0x00, 0x00, 0x10, 0x00, 0x00, 0x00,
  0x26, 0xf7, 0xff, 0xff, 0x00, 0x00, 0x00, 0x01, 0x14, 0x00, 0x00, 0x00,
  0x1c, 0x00, 0x00, 0x00, 0x1c, 0x00, 0x00, 0x00, 0x1d, 0x00, 0x00, 0x00,
  0x50, 0x00, 0x00, 0x00, 0x02, 0x00, 0x00, 0x00, 0xff, 0xff, 0xff, 0xff,
  0x10, 0x00, 0x00, 0x00, 0xa0, 0xf6, 0xff, 0xff, 0x34, 0x00, 0x00, 0x00,
  0x73, 0x65, 0x71, 0x75, 0x65, 0x6e, 0x74, 0x69, 0x61, 0x6c, 0x5f, 0x31,
  0x2f, 0x73, 0x69, 0x6d, 0x70, 0x6c, 0x65, 0x5f, 0x72, 0x6e, 0x6e, 0x5f,
  0x31, 0x2f, 0x73, 0x69, 0x6d, 0x70, 0x6c, 0x65, 0x5f, 0x72, 0x6e, 0x6e,
  0x5f, 0x63, 0x65, 0x6c, 0x6c, 0x5f, 0x31, 0x2f, 0x4d, 0x61, 0x74, 0x4d,
  0x75, 0x6c, 0x5f, 0x31, 0x00, 0x00, 0x00, 0x00, 0x02, 0x00, 0x00, 0x00,
  0x01, 0x00, 0x00, 0x00, 0x10, 0x00, 0x00, 0x00, 0x9a, 0xf7, 0xff, 0xff,
  0x00, 0x00, 0x00, 0x01, 0x14, 0x00, 0x00, 0x00, 0x1c, 0x00, 0x00, 0x00,
  0x1c, 0x00, 0x00, 0x00, 0x1c, 0x00, 0x00, 0x00, 0x38, 0x00, 0x00, 0x00,
  0x02, 0x00, 0x00, 0x00, 0xff, 0xff, 0xff, 0xff, 0x10, 0x00, 0x00, 0x00,
  0x14, 0xf7, 0xff, 0xff, 0x1f, 0x00, 0x00, 0x00, 0x73, 0x65, 0x71, 0x75,
  0x65, 0x6e, 0x74, 0x69, 0x61, 0x6c, 0x5f, 0x31, 0x2f, 0x73, 0x69, 0x6d,
  0x70, 0x6c, 0x65, 0x5f, 0x72, 0x6e, 0x6e, 0x5f, 0x31, 0x2f, 0x7a, 0x65,
  0x72, 0x6f, 0x73, 0x00, 0x02, 0x00, 0x00, 0x00, 0x01, 0x00, 0x00, 0x00,
  0x10, 0x00, 0x00, 0x00, 0xf6, 0xf9, 0xff, 0xff, 0x00, 0x00, 0x00, 0x01,
  0x14, 0x00, 0x00, 0x00, 0x14, 0x00, 0x00, 0x00, 0x1b, 0x00, 0x00, 0x00,
  0x00, 0x00, 0x00, 0x02, 0x34, 0x00, 0x00, 0x00, 0x64, 0xf7, 0xff, 0xff,
  0x26, 0x00, 0x00, 0x00, 0x73, 0x65, 0x71, 0x75, 0x65, 0x6e, 0x74, 0x69,
  0x61, 0x6c, 0x5f, 0x31, 0x2f, 0x73, 0x69, 0x6d, 0x70, 0x6c, 0x65, 0x5f,
  0x72, 0x6e, 0x6e, 0x5f, 0x31, 0x2f, 0x7a, 0x65, 0x72, 0x6f, 0x73, 0x2f,
  0x70, 0x61, 0x63, 0x6b, 0x65, 0x64, 0x00, 0x00, 0x01, 0x00, 0x00, 0x00,
  0x02, 0x00, 0x00, 0x00, 0x4a, 0xf8, 0xff, 0xff, 0x00, 0x00, 0x00, 0x01,
  0x14, 0x00, 0x00, 0x00, 0x1c, 0x00, 0x00, 0x00, 0x1c, 0x00, 0x00, 0x00,
  0x1a, 0x00, 0x00, 0x00, 0x3c, 0x00, 0x00, 0x00, 0x02, 0x00, 0x00, 0x00,
  0xff, 0xff, 0xff, 0xff, 0x01, 0x00, 0x00, 0x00, 0xc4, 0xf7, 0xff, 0xff,
  0x22, 0x00, 0x00, 0x00, 0x73, 0x65, 0x71, 0x75, 0x65, 0x6e, 0x74, 0x69,
  0x61, 0x6c, 0x5f, 0x31, 0x2f, 0x73, 0x69, 0x6d, 0x70, 0x6c, 0x65, 0x5f,
  0x72, 0x6e, 0x6e, 0x5f, 0x31, 0x2f, 0x75, 0x6e, 0x73, 0x74, 0x61, 0x63,
  0x6b, 0x39, 0x00, 0x00, 0x02, 0x00, 0x00, 0x00, 0x01, 0x00, 0x00, 0x00,
  0x01, 0x00, 0x00, 0x00, 0xaa, 0xf8, 0xff, 0xff, 0x00, 0x00, 0x00, 0x01,
  0x14, 0x00, 0x00, 0x00, 0x1c, 0x00, 0x00, 0x00, 0x1c, 0x00, 0x00, 0x00,
  0x19, 0x00, 0x00, 0x00, 0x3c, 0x00, 0x00, 0x00, 0x02, 0x00, 0x00, 0x00,
  0xff, 0xff, 0xff, 0xff, 0x01, 0x00, 0x00, 0x00, 0x24, 0xf8, 0xff, 0xff,
  0x22, 0x00, 0x00, 0x00, 0x73, 0x65, 0x71, 0x75, 0x65, 0x6e, 0x74, 0x69,
  0x61, 0x6c, 0x5f, 0x31, 0x2f, 0x73, 0x69, 0x6d, 0x70, 0x6c, 0x65, 0x5f,
  0x72, 0x6e, 0x6e, 0x5f, 0x31, 0x2f, 0x75, 0x6e, 0x73, 0x74, 0x61, 0x63,
  0x6b, 0x38, 0x00, 0x00, 0x02, 0x00, 0x00, 0x00, 0x01, 0x00, 0x00, 0x00,
  0x01, 0x00, 0x00, 0x00, 0x0a, 0xf9, 0xff, 0xff, 0x00, 0x00, 0x00, 0x01,
  0x14, 0x00, 0x00, 0x00, 0x1c, 0x00, 0x00, 0x00, 0x1c, 0x00, 0x00, 0x00,
  0x18, 0x00, 0x00, 0x00, 0x3c, 0x00, 0x00, 0x00, 0x02, 0x00, 0x00, 0x00,
  0xff, 0xff, 0xff, 0xff, 0x01, 0x00, 0x00, 0x00, 0x84, 0xf8, 0xff, 0xff,
  0x22, 0x00, 0x00, 0x00, 0x73, 0x65, 0x71, 0x75, 0x65, 0x6e, 0x74, 0x69,
  0x61, 0x6c, 0x5f, 0x31, 0x2f, 0x73, 0x69, 0x6d, 0x70, 0x6c, 0x65, 0x5f,
  0x72, 0x6e, 0x6e, 0x5f, 0x31, 0x2f, 0x75, 0x6e, 0x73, 0x74, 0x61, 0x63,
  0x6b, 0x37, 0x00, 0x00, 0x02, 0x00, 0x00, 0x00, 0x01, 0x00, 0x00, 0x00,
  0x01, 0x00, 0x00, 0x00, 0x6a, 0xf9, 0xff, 0xff, 0x00, 0x00, 0x00, 0x01,
  0x14, 0x00, 0x00, 0x00, 0x1c, 0x00, 0x00, 0x00, 0x1c, 0x00, 0x00, 0x00,
  0x17, 0x00, 0x00, 0x00, 0x3c, 0x00, 0x00, 0x00, 0x02, 0x00, 0x00, 0x00,
  0xff, 0xff, 0xff, 0xff, 0x01, 0x00, 0x00, 0x00, 0xe4, 0xf8, 0xff, 0xff,
  0x22, 0x00, 0x00, 0x00, 0x73, 0x65, 0x71, 0x75, 0x65, 0x6e, 0x74, 0x69,
  0x61, 0x6c, 0x5f, 0x31, 0x2f, 0x73, 0x69, 0x6d, 0x70, 0x6c, 0x65, 0x5f,
  0x72, 0x6e, 0x6e, 0x5f, 0x31, 0x2f, 0x75, 0x6e, 0x73, 0x74, 0x61, 0x63,
  0x6b, 0x36, 0x00, 0x00, 0x02, 0x00, 0x00, 0x00, 0x01, 0x00, 0x00, 0x00,
  0x01, 0x00, 0x00, 0x00, 0xca, 0xf9, 0xff, 0xff, 0x00, 0x00, 0x00, 0x01,
  0x14, 0x00, 0x00, 0x00, 0x1c, 0x00, 0x00, 0x00, 0x1c, 0x00, 0x00, 0x00,
  0x16, 0x00, 0x00, 0x00, 0x3c, 0x00, 0x00, 0x00, 0x02, 0x00, 0x00, 0x00,
  0xff, 0xff, 0xff, 0xff, 0x01, 0x00, 0x00, 0x00, 0x44, 0xf9, 0xff, 0xff,
  0x22, 0x00, 0x00, 0x00, 0x73, 0x65, 0x71, 0x75, 0x65, 0x6e, 0x74, 0x69,
  0x61, 0x6c, 0x5f, 0x31, 0x2f, 0x73, 0x69, 0x6d, 0x70, 0x6c, 0x65, 0x5f,
  0x72, 0x6e, 0x6e, 0x5f, 0x31, 0x2f, 0x75, 0x6e, 0x73, 0x74, 0x61, 0x63,
  0x6b, 0x35, 0x00, 0x00, 0x02, 0x00, 0x00, 0x00, 0x01, 0x00, 0x00, 0x00,
  0x01, 0x00, 0x00, 0x00, 0x2a, 0xfa, 0xff, 0xff, 0x00, 0x00, 0x00, 0x01,
  0x14, 0x00, 0x00, 0x00, 0x1c, 0x00, 0x00, 0x00, 0x1c, 0x00, 0x00, 0x00,
  0x15, 0x00, 0x00, 0x00, 0x3c, 0x00, 0x00, 0x00, 0x02, 0x00, 0x00, 0x00,
  0xff, 0xff, 0xff, 0xff, 0x01, 0x00, 0x00, 0x00, 0xa4, 0xf9, 0xff, 0xff,
  0x22, 0x00, 0x00, 0x00, 0x73, 0x65, 0x71, 0x75, 0x65, 0x6e, 0x74, 0x69,
  0x61, 0x6c, 0x5f, 0x31, 0x2f, 0x73, 0x69, 0x6d, 0x70, 0x6c, 0x65, 0x5f,
  0x72, 0x6e, 0x6e, 0x5f, 0x31, 0x2f, 0x75, 0x6e, 0x73, 0x74, 0x61, 0x63,
  0x6b, 0x34, 0x00, 0x00, 0x02, 0x00, 0x00, 0x00, 0x01, 0x00, 0x00, 0x00,
  0x01, 0x00, 0x00, 0x00, 0x8a, 0xfa, 0xff, 0xff, 0x00, 0x00, 0x00, 0x01,
  0x14, 0x00, 0x00, 0x00, 0x1c, 0x00, 0x00, 0x00, 0x1c, 0x00, 0x00, 0x00,
  0x14, 0x00, 0x00, 0x00, 0x3c, 0x00, 0x00, 0x00, 0x02, 0x00, 0x00, 0x00,
  0xff, 0xff, 0xff, 0xff, 0x01, 0x00, 0x00, 0x00, 0x04, 0xfa, 0xff, 0xff,
  0x22, 0x00, 0x00, 0x00, 0x73, 0x65, 0x71, 0x75, 0x65, 0x6e, 0x74, 0x69,
  0x61, 0x6c, 0x5f, 0x31, 0x2f, 0x73, 0x69, 0x6d, 0x70, 0x6c, 0x65, 0x5f,
  0x72, 0x6e, 0x6e, 0x5f, 0x31, 0x2f, 0x75, 0x6e, 0x73, 0x74, 0x61, 0x63,
  0x6b, 0x33, 0x00, 0x00, 0x02, 0x00, 0x00, 0x00, 0x01, 0x00, 0x00, 0x00,
  0x01, 0x00, 0x00, 0x00, 0xea, 0xfa, 0xff, 0xff, 0x00, 0x00, 0x00, 0x01,
  0x14, 0x00, 0x00, 0x00, 0x1c, 0x00, 0x00, 0x00, 0x1c, 0x00, 0x00, 0x00,
  0x13, 0x00, 0x00, 0x00, 0x3c, 0x00, 0x00, 0x00, 0x02, 0x00, 0x00, 0x00,
  0xff, 0xff, 0xff, 0xff, 0x01, 0x00, 0x00, 0x00, 0x64, 0xfa, 0xff, 0xff,
  0x22, 0x00, 0x00, 0x00, 0x73, 0x65, 0x71, 0x75, 0x65, 0x6e, 0x74, 0x69,
  0x61, 0x6c, 0x5f, 0x31, 0x2f, 0x73, 0x69, 0x6d, 0x70, 0x6c, 0x65, 0x5f,
  0x72, 0x6e, 0x6e, 0x5f, 0x31, 0x2f, 0x75, 0x6e, 0x73, 0x74, 0x61, 0x63,
  0x6b, 0x32, 0x00, 0x00, 0x02, 0x00, 0x00, 0x00, 0x01, 0x00, 0x00, 0x00,
  0x01, 0x00, 0x00, 0x00, 0x4a, 0xfb, 0xff, 0xff, 0x00, 0x00, 0x00, 0x01,
  0x14, 0x00, 0x00, 0x00, 0x1c, 0x00, 0x00, 0x00, 0x1c, 0x00, 0x00, 0x00,
  0x12, 0x00, 0x00, 0x00, 0x3c, 0x00, 0x00, 0x00, 0x02, 0x00, 0x00, 0x00,
  0xff, 0xff, 0xff, 0xff, 0x01, 0x00, 0x00, 0x00, 0xc4, 0xfa, 0xff, 0xff,
  0x22, 0x00, 0x00, 0x00, 0x73, 0x65, 0x71, 0x75, 0x65, 0x6e, 0x74, 0x69,
  0x61, 0x6c, 0x5f, 0x31, 0x2f, 0x73, 0x69, 0x6d, 0x70, 0x6c, 0x65, 0x5f,
  0x72, 0x6e, 0x6e, 0x5f, 0x31, 0x2f, 0x75, 0x6e, 0x73, 0x74, 0x61, 0x63,
  0x6b, 0x31, 0x00, 0x00, 0x02, 0x00, 0x00, 0x00, 0x01, 0x00, 0x00, 0x00,
  0x01, 0x00, 0x00, 0x00, 0xaa, 0xfb, 0xff, 0xff, 0x00, 0x00, 0x00, 0x01,
  0x14, 0x00, 0x00, 0x00, 0x1c, 0x00, 0x00, 0x00, 0x1c, 0x00, 0x00, 0x00,
  0x11, 0x00, 0x00, 0x00, 0x3c, 0x00, 0x00, 0x00, 0x02, 0x00, 0x00, 0x00,
  0xff, 0xff, 0xff, 0xff, 0x01, 0x00, 0x00, 0x00, 0x24, 0xfb, 0xff, 0xff,
  0x21, 0x00, 0x00, 0x00, 0x73, 0x65, 0x71, 0x75, 0x65, 0x6e, 0x74, 0x69,
  0x61, 0x6c, 0x5f, 0x31, 0x2f, 0x73, 0x69, 0x6d, 0x70, 0x6c, 0x65, 0x5f,
  0x72, 0x6e, 0x6e, 0x5f, 0x31, 0x2f, 0x75, 0x6e, 0x73, 0x74, 0x61, 0x63,
  0x6b, 0x00, 0x00, 0x00, 0x02, 0x00, 0x00, 0x00, 0x01, 0x00, 0x00, 0x00,
  0x01, 0x00, 0x00, 0x00, 0x0a, 0xfc, 0xff, 0xff, 0x00, 0x00, 0x00, 0x01,
  0x14, 0x00, 0x00, 0x00, 0x20, 0x00, 0x00, 0x00, 0x20, 0x00, 0x00, 0x00,
  0x10, 0x00, 0x00, 0x00, 0x40, 0x00, 0x00, 0x00, 0x03, 0x00, 0x00, 0x00,
  0x0a, 0x00, 0x00, 0x00, 0xff, 0xff, 0xff, 0xff, 0x01, 0x00, 0x00, 0x00,
  0x88, 0xfb, 0xff, 0xff, 0x23, 0x00, 0x00, 0x00, 0x73, 0x65, 0x71, 0x75,
  0x65, 0x6e, 0x74, 0x69, 0x61, 0x6c, 0x5f, 0x31, 0x2f, 0x73, 0x69, 0x6d,
  0x70, 0x6c, 0x65, 0x5f, 0x72, 0x6e, 0x6e, 0x5f, 0x31, 0x2f, 0x74, 0x72,
  0x61, 0x6e, 0x73, 0x70, 0x6f, 0x73, 0x65, 0x00, 0x03, 0x00, 0x00, 0x00,
  0x0a, 0x00, 0x00, 0x00, 0x01, 0x00, 0x00, 0x00, 0x01, 0x00, 0x00, 0x00,
  0x72, 0xfe, 0xff, 0xff, 0x00, 0x00, 0x00, 0x01, 0x14, 0x00, 0x00, 0x00,
  0x14, 0x00, 0x00, 0x00, 0x0f, 0x00, 0x00, 0x00, 0x00, 0x00, 0x00, 0x02,
  0x34, 0x00, 0x00, 0x00, 0xe0, 0xfb, 0xff, 0xff, 0x27, 0x00, 0x00, 0x00,
  0x73, 0x65, 0x71, 0x75, 0x65, 0x6e, 0x74, 0x69, 0x61, 0x6c, 0x5f, 0x31,
  0x2f, 0x73, 0x69, 0x6d, 0x70, 0x6c, 0x65, 0x5f, 0x72, 0x6e, 0x6e, 0x5f,
  0x31, 0x2f, 0x73, 0x74, 0x72, 0x69, 0x64, 0x65, 0x64, 0x5f, 0x73, 0x6c,
  0x69, 0x63, 0x65, 0x00, 0x00, 0x00, 0x00, 0x00, 0xc2, 0xfe, 0xff, 0xff,
  0x00, 0x00, 0x00, 0x01, 0x14, 0x00, 0x00, 0x00, 0x14, 0x00, 0x00, 0x00,
  0x0e, 0x00, 0x00, 0x00, 0x00, 0x00, 0x00, 0x02, 0x2c, 0x00, 0x00, 0x00,
  0x30, 0xfc, 0xff, 0xff, 0x1f, 0x00, 0x00, 0x00, 0x73, 0x65, 0x71, 0x75,
  0x65, 0x6e, 0x74, 0x69, 0x61, 0x6c, 0x5f, 0x31, 0x2f, 0x73, 0x69, 0x6d,
  0x70, 0x6c, 0x65, 0x5f, 0x72, 0x6e, 0x6e, 0x5f, 0x31, 0x2f, 0x53, 0x68,
  0x61, 0x70, 0x65, 0x00, 0x01, 0x00, 0x00, 0x00, 0x03, 0x00, 0x00, 0x00,
  0x0e, 0xff, 0xff, 0xff, 0x00, 0x00, 0x00, 0x01, 0x14, 0x00, 0x00, 0x00,
  0x14, 0x00, 0x00, 0x00, 0x0a, 0x00, 0x00, 0x00, 0x00, 0x00, 0x00, 0x02,
  0x20, 0x00, 0x00, 0x00, 0x7c, 0xfc, 0xff, 0xff, 0x10, 0x00, 0x00, 0x00,
  0x61, 0x72, 0x69, 0x74, 0x68, 0x2e, 0x63, 0x6f, 0x6e, 0x73, 0x74, 0x61,
  0x6e, 0x74, 0x31, 0x31, 0x00, 0x00, 0x00, 0x00, 0x01, 0x00, 0x00, 0x00,
  0x01, 0x00, 0x00, 0x00, 0x4e, 0xff, 0xff, 0xff, 0x00, 0x00, 0x00, 0x01,
  0x14, 0x00, 0x00, 0x00, 0x14, 0x00, 0x00, 0x00, 0x0c, 0x00, 0x00, 0x00,
  0x00, 0x00, 0x00, 0x02, 0x20, 0x00, 0x00, 0x00, 0xbc, 0xfc, 0xff, 0xff,
  0x10, 0x00, 0x00, 0x00, 0x61, 0x72, 0x69, 0x74, 0x68, 0x2e, 0x63, 0x6f,
  0x6e, 0x73, 0x74, 0x61, 0x6e, 0x74, 0x31, 0x30, 0x00, 0x00, 0x00, 0x00,
  0x01, 0x00, 0x00, 0x00, 0x01, 0x00, 0x00, 0x00, 0x8e, 0xff, 0xff, 0xff,
  0x00, 0x00, 0x00, 0x01, 0x14, 0x00, 0x00, 0x00, 0x14, 0x00, 0x00, 0x00,
  0x0b, 0x00, 0x00, 0x00, 0x00, 0x00, 0x00, 0x02, 0x1c, 0x00, 0x00, 0x00,
  0xfc, 0xfc, 0xff, 0xff, 0x0f, 0x00, 0x00, 0x00, 0x61, 0x72, 0x69, 0x74,
  0x68, 0x2e, 0x63, 0x6f, 0x6e, 0x73, 0x74, 0x61, 0x6e, 0x74, 0x39, 0x00,
  0x01, 0x00, 0x00, 0x00, 0x03, 0x00, 0x00, 0x00, 0x1e, 0xfe, 0xff, 0xff,
  0x00, 0x00, 0x00, 0x01, 0x10, 0x00, 0x00, 0x00, 0x10, 0x00, 0x00, 0x00,
  0x0a, 0x00, 0x00, 0x00, 0x1c, 0x00, 0x00, 0x00, 0x34, 0xfd, 0xff, 0xff,
  0x0f, 0x00, 0x00, 0x00, 0x61, 0x72, 0x69, 0x74, 0x68, 0x2e, 0x63, 0x6f,
  0x6e, 0x73, 0x74, 0x61, 0x6e, 0x74, 0x38, 0x00, 0x00, 0x00, 0x00, 0x00,
  0x00, 0x00, 0x16, 0x00, 0x1c, 0x00, 0x18, 0x00, 0x17, 0x00, 0x10, 0x00,
  0x0c, 0x00, 0x08, 0x00, 0x00, 0x00, 0x00, 0x00, 0x00, 0x00, 0x07, 0x00,
  0x16, 0x00, 0x00, 0x00, 0x00, 0x00, 0x00, 0x01, 0x14, 0x00, 0x00, 0x00,
  0x14, 0x00, 0x00, 0x00, 0x09, 0x00, 0x00, 0x00, 0x00, 0x00, 0x00, 0x02,
  0x1c, 0x00, 0x00, 0x00, 0x84, 0xfd, 0xff, 0xff, 0x0f, 0x00, 0x00, 0x00,
  0x61, 0x72, 0x69, 0x74, 0x68, 0x2e, 0x63, 0x6f, 0x6e, 0x73, 0x74, 0x61,
  0x6e, 0x74, 0x37, 0x00, 0x00, 0x00, 0x00, 0x00, 0xa2, 0xfe, 0xff, 0xff,
  0x00, 0x00, 0x00, 0x01, 0x10, 0x00, 0x00, 0x00, 0x10, 0x00, 0x00, 0x00,
  0x08, 0x00, 0x00, 0x00, 0x1c, 0x00, 0x00, 0x00, 0xb8, 0xfd, 0xff, 0xff,
  0x0f, 0x00, 0x00, 0x00, 0x61, 0x72, 0x69, 0x74, 0x68, 0x2e, 0x63, 0x6f,
  0x6e, 0x73, 0x74, 0x61, 0x6e, 0x74, 0x36, 0x00, 0x01, 0x00, 0x00, 0x00,
  0x01, 0x00, 0x00, 0x00, 0xda, 0xfe, 0xff, 0xff, 0x00, 0x00, 0x00, 0x01,
  0x10, 0x00, 0x00, 0x00, 0x10, 0x00, 0x00, 0x00, 0x07, 0x00, 0x00, 0x00,
  0x1c, 0x00, 0x00, 0x00, 0xf0, 0xfd, 0xff, 0xff, 0x0f, 0x00, 0x00, 0x00,
  0x61, 0x72, 0x69, 0x74, 0x68, 0x2e, 0x63, 0x6f, 0x6e, 0x73, 0x74, 0x61,
  0x6e, 0x74, 0x35, 0x00, 0x01, 0x00, 0x00, 0x00, 0x08, 0x00, 0x00, 0x00,
  0x12, 0xff, 0xff, 0xff, 0x00, 0x00, 0x00, 0x01, 0x10, 0x00, 0x00, 0x00,
  0x10, 0x00, 0x00, 0x00, 0x06, 0x00, 0x00, 0x00, 0x1c, 0x00, 0x00, 0x00,
  0x28, 0xfe, 0xff, 0xff, 0x0f, 0x00, 0x00, 0x00, 0x61, 0x72, 0x69, 0x74,
  0x68, 0x2e, 0x63, 0x6f, 0x6e, 0x73, 0x74, 0x61, 0x6e, 0x74, 0x34, 0x00,
  0x01, 0x00, 0x00, 0x00, 0x10, 0x00, 0x00, 0x00, 0x4a, 0xff, 0xff, 0xff,
  0x00, 0x00, 0x00, 0x01, 0x10, 0x00, 0x00, 0x00, 0x10, 0x00, 0x00, 0x00,
  0x05, 0x00, 0x00, 0x00, 0x1c, 0x00, 0x00, 0x00, 0x60, 0xfe, 0xff, 0xff,
  0x0f, 0x00, 0x00, 0x00, 0x61, 0x72, 0x69, 0x74, 0x68, 0x2e, 0x63, 0x6f,
  0x6e, 0x73, 0x74, 0x61, 0x6e, 0x74, 0x33, 0x00, 0x02, 0x00, 0x00, 0x00,
  0x10, 0x00, 0x00, 0x00, 0x10, 0x00, 0x00, 0x00, 0x86, 0xff, 0xff, 0xff,
  0x00, 0x00, 0x00, 0x01, 0x10, 0x00, 0x00, 0x00, 0x10, 0x00, 0x00, 0x00,
  0x04, 0x00, 0x00, 0x00, 0x1c, 0x00, 0x00, 0x00, 0x9c, 0xfe, 0xff, 0xff,
  0x0f, 0x00, 0x00, 0x00, 0x61, 0x72, 0x69, 0x74, 0x68, 0x2e, 0x63, 0x6f,
  0x6e, 0x73, 0x74, 0x61, 0x6e, 0x74, 0x32, 0x00, 0x02, 0x00, 0x00, 0x00,
  0x10, 0x00, 0x00, 0x00, 0x01, 0x00, 0x00, 0x00, 0xc2, 0xff, 0xff, 0xff,
  0x00, 0x00, 0x00, 0x01, 0x10, 0x00, 0x00, 0x00, 0x10, 0x00, 0x00, 0x00,
  0x03, 0x00, 0x00, 0x00, 0x1c, 0x00, 0x00, 0x00, 0xd8, 0xfe, 0xff, 0xff,
  0x0f, 0x00, 0x00, 0x00, 0x61, 0x72, 0x69, 0x74, 0x68, 0x2e, 0x63, 0x6f,
  0x6e, 0x73, 0x74, 0x61, 0x6e, 0x74, 0x31, 0x00, 0x02, 0x00, 0x00, 0x00,
  0x08, 0x00, 0x00, 0x00, 0x10, 0x00, 0x00, 0x00, 0x00, 0x00, 0x16, 0x00,
  0x18, 0x00, 0x14, 0x00, 0x00, 0x00, 0x10, 0x00, 0x0c, 0x00, 0x08, 0x00,
  0x00, 0x00, 0x00, 0x00, 0x00, 0x00, 0x07, 0x00, 0x16, 0x00, 0x00, 0x00,
  0x00, 0x00, 0x00, 0x01, 0x10, 0x00, 0x00, 0x00, 0x10, 0x00, 0x00, 0x00,
  0x02, 0x00, 0x00, 0x00, 0x1c, 0x00, 0x00, 0x00, 0x2c, 0xff, 0xff, 0xff,
  0x0e, 0x00, 0x00, 0x00, 0x61, 0x72, 0x69, 0x74, 0x68, 0x2e, 0x63, 0x6f,
  0x6e, 0x73, 0x74, 0x61, 0x6e, 0x74, 0x00, 0x00, 0x02, 0x00, 0x00, 0x00,
  0x01, 0x00, 0x00, 0x00, 0x08, 0x00, 0x00, 0x00, 0x00, 0x00, 0x16, 0x00,
  0x1c, 0x00, 0x18, 0x00, 0x00, 0x00, 0x14, 0x00, 0x10, 0x00, 0x0c, 0x00,
  0x00, 0x00, 0x00, 0x00, 0x08, 0x00, 0x07, 0x00, 0x16, 0x00, 0x00, 0x00,
  0x00, 0x00, 0x00, 0x01, 0x14, 0x00, 0x00, 0x00, 0x20, 0x00, 0x00, 0x00,
  0x20, 0x00, 0x00, 0x00, 0x01, 0x00, 0x00, 0x00, 0x3c, 0x00, 0x00, 0x00,
  0x03, 0x00, 0x00, 0x00, 0xff, 0xff, 0xff, 0xff, 0x0a, 0x00, 0x00, 0x00,
  0x01, 0x00, 0x00, 0x00, 0x94, 0xff, 0xff, 0xff, 0x1d, 0x00, 0x00, 0x00,
  0x73, 0x65, 0x72, 0x76, 0x69, 0x6e, 0x67, 0x5f, 0x64, 0x65, 0x66, 0x61,
  0x75, 0x6c, 0x74, 0x5f, 0x69, 0x6e, 0x70, 0x75, 0x74, 0x5f, 0x6c, 0x61,
  0x79, 0x65, 0x72, 0x3a, 0x30, 0x00, 0x00, 0x00, 0x03, 0x00, 0x00, 0x00,
  0x01, 0x00, 0x00, 0x00, 0x0a, 0x00, 0x00, 0x00, 0x01, 0x00, 0x00, 0x00,
  0x09, 0x00, 0x00, 0x00, 0x8c, 0x00, 0x00, 0x00, 0x70, 0x00, 0x00, 0x00,
  0x60, 0x00, 0x00, 0x00, 0x50, 0x00, 0x00, 0x00, 0x40, 0x00, 0x00, 0x00,
  0x30, 0x00, 0x00, 0x00, 0x20, 0x00, 0x00, 0x00, 0x18, 0x00, 0x00, 0x00,
  0x04, 0x00, 0x00, 0x00, 0xa4, 0xff, 0xff, 0xff, 0x1c, 0x00, 0x00, 0x00,
  0x00, 0x00, 0x00, 0x1c, 0x04, 0x00, 0x04, 0x00, 0x04, 0x00, 0x00, 0x00,
  0xb8, 0xff, 0xff, 0xff, 0x09, 0x00, 0x00, 0x00, 0x00, 0x00, 0x00, 0x09,
  0xc4, 0xff, 0xff, 0xff, 0x5e, 0x00, 0x00, 0x00, 0x00, 0x00, 0x00, 0x5e,
  0xd0, 0xff, 0xff, 0xff, 0x53, 0x00, 0x00, 0x00, 0x00, 0x00, 0x00, 0x53,
  0xdc, 0xff, 0xff, 0xff, 0x58, 0x00, 0x00, 0x00, 0x00, 0x00, 0x00, 0x58,
  0xe8, 0xff, 0xff, 0xff, 0x27, 0x00, 0x00, 0x00, 0x00, 0x00, 0x00, 0x27,
  0xf4, 0xff, 0xff, 0xff, 0x2d, 0x00, 0x00, 0x00, 0x00, 0x00, 0x00, 0x2d,
  0x0c, 0x00, 0x0c, 0x00, 0x0b, 0x00, 0x00, 0x00, 0x00, 0x00, 0x04, 0x00,
  0x0c, 0x00, 0x00, 0x00, 0x4d, 0x00, 0x00, 0x00, 0x00, 0x00, 0x00, 0x4d
};
unsigned int model_tflite_len = 13416;
