unsigned char model_tflite[] = {
  0x1c, 0x00, 0x00, 0x00, 0x54, 0x46, 0x4c, 0x33, 0x14, 0x00, 0x20, 0x00,
  0x1c, 0x00, 0x18, 0x00, 0x14, 0x00, 0x10, 0x00, 0x0c, 0x00, 0x00, 0x00,
  0x08, 0x00, 0x04, 0x00, 0x14, 0x00, 0x00, 0x00, 0x1c, 0x00, 0x00, 0x00,
  0x80, 0x00, 0x00, 0x00, 0xd8, 0x00, 0x00, 0x00, 0xc8, 0x0a, 0x00, 0x00,
  0xd8, 0x0a, 0x00, 0x00, 0x60, 0x33, 0x00, 0x00, 0x03, 0x00, 0x00, 0x00,
  0x01, 0x00, 0x00, 0x00, 0x04, 0x00, 0x00, 0x00, 0xea, 0xeb, 0xff, 0xff,
  0x0c, 0x00, 0x00, 0x00, 0x1c, 0x00, 0x00, 0x00, 0x38, 0x00, 0x00, 0x00,
  0x0f, 0x00, 0x00, 0x00, 0x73, 0x65, 0x72, 0x76, 0x69, 0x6e, 0x67, 0x5f,
  0x64, 0x65, 0x66, 0x61, 0x75, 0x6c, 0x74, 0x00, 0x01, 0x00, 0x00, 0x00,
  0x04, 0x00, 0x00, 0x00, 0x9c, 0xff, 0xff, 0xff, 0x45, 0x00, 0x00, 0x00,
  0x04, 0x00, 0x00, 0x00, 0x07, 0x00, 0x00, 0x00, 0x64, 0x65, 0x6e, 0x73,
  0x65, 0x5f, 0x31, 0x00, 0x01, 0x00, 0x00, 0x00, 0x04, 0x00, 0x00, 0x00,
  0x7a, 0xec, 0xff, 0xff, 0x04, 0x00, 0x00, 0x00, 0x07, 0x00, 0x00, 0x00,
  0x69, 0x6e, 0x70, 0x75, 0x74, 0x5f, 0x31, 0x00, 0x02, 0x00, 0x00, 0x00,
  0x34, 0x00, 0x00, 0x00, 0x04, 0x00, 0x00, 0x00, 0xdc, 0xff, 0xff, 0xff,
  0x48, 0x00, 0x00, 0x00, 0x04, 0x00, 0x00, 0x00, 0x13, 0x00, 0x00, 0x00,
  0x43, 0x4f, 0x4e, 0x56, 0x45, 0x52, 0x53, 0x49, 0x4f, 0x4e, 0x5f, 0x4d,
  0x45, 0x54, 0x41, 0x44, 0x41, 0x54, 0x41, 0x00, 0x08, 0x00, 0x0c, 0x00,
  0x08, 0x00, 0x04, 0x00, 0x08, 0x00, 0x00, 0x00, 0x47, 0x00, 0x00, 0x00,
  0x04, 0x00, 0x00, 0x00, 0x13, 0x00, 0x00, 0x00, 0x6d, 0x69, 0x6e, 0x5f,
  0x72, 0x75, 0x6e, 0x74, 0x69, 0x6d, 0x65, 0x5f, 0x76, 0x65, 0x72, 0x73,
  0x69, 0x6f, 0x6e, 0x00, 0x49, 0x00, 0x00, 0x00, 0xec, 0x09, 0x00, 0x00,
  0xe4, 0x09, 0x00, 0x00, 0x94, 0x09, 0x00, 0x00, 0x64, 0x09, 0x00, 0x00,
  0x50, 0x09, 0x00, 0x00, 0x3c, 0x09, 0x00, 0x00, 0x28, 0x09, 0x00, 0x00,
  0x0c, 0x09, 0x00, 0x00, 0xf8, 0x08, 0x00, 0x00, 0xf0, 0x08, 0x00, 0x00,
  0xe0, 0x04, 0x00, 0x00, 0x90, 0x04, 0x00, 0x00, 0x80, 0x02, 0x00, 0x00,
  0x50, 0x02, 0x00, 0x00, 0x48, 0x02, 0x00, 0x00, 0x40, 0x02, 0x00, 0x00,
  0x38, 0x02, 0x00, 0x00, 0x30, 0x02, 0x00, 0x00, 0x28, 0x02, 0x00, 0x00,
  0x20, 0x02, 0x00, 0x00, 0x18, 0x02, 0x00, 0x00, 0x10, 0x02, 0x00, 0x00,
  0x08, 0x02, 0x00, 0x00, 0x00, 0x02, 0x00, 0x00, 0xf8, 0x01, 0x00, 0x00,
  0xf0, 0x01, 0x00, 0x00, 0xe8, 0x01, 0x00, 0x00, 0xe0, 0x01, 0x00, 0x00,
  0xd8, 0x01, 0x00, 0x00, 0xd0, 0x01, 0x00, 0x00, 0xc8, 0x01, 0x00, 0x00,
  0xc0, 0x01, 0x00, 0x00, 0xb8, 0x01, 0x00, 0x00, 0xb0, 0x01, 0x00, 0x00,
  0xa8, 0x01, 0x00, 0x00, 0xa0, 0x01, 0x00, 0x00, 0x98, 0x01, 0x00, 0x00,
  0x90, 0x01, 0x00, 0x00, 0x88, 0x01, 0x00, 0x00, 0x80, 0x01, 0x00, 0x00,
  0x78, 0x01, 0x00, 0x00, 0x70, 0x01, 0x00, 0x00, 0x68, 0x01, 0x00, 0x00,
  0x60, 0x01, 0x00, 0x00, 0x58, 0x01, 0x00, 0x00, 0x50, 0x01, 0x00, 0x00,
  0x48, 0x01, 0x00, 0x00, 0x40, 0x01, 0x00, 0x00, 0x38, 0x01, 0x00, 0x00,
  0x30, 0x01, 0x00, 0x00, 0x28, 0x01, 0x00, 0x00, 0x20, 0x01, 0x00, 0x00,
  0x18, 0x01, 0x00, 0x00, 0x10, 0x01, 0x00, 0x00, 0x08, 0x01, 0x00, 0x00,
  0x00, 0x01, 0x00, 0x00, 0xf8, 0x00, 0x00, 0x00, 0xf0, 0x00, 0x00, 0x00,
  0xe8, 0x00, 0x00, 0x00, 0xe0, 0x00, 0x00, 0x00, 0xd8, 0x00, 0x00, 0x00,
  0xd0, 0x00, 0x00, 0x00, 0xc8, 0x00, 0x00, 0x00, 0xc0, 0x00, 0x00, 0x00,
  0xb8, 0x00, 0x00, 0x00, 0xb0, 0x00, 0x00, 0x00, 0xa8, 0x00, 0x00, 0x00,
  0xa0, 0x00, 0x00, 0x00, 0x98, 0x00, 0x00, 0x00, 0x90, 0x00, 0x00, 0x00,
  0x88, 0x00, 0x00, 0x00, 0x68, 0x00, 0x00, 0x00, 0x04, 0x00, 0x00, 0x00,
  0x12, 0xee, 0xff, 0xff, 0x04, 0x00, 0x00, 0x00, 0x54, 0x00, 0x00, 0x00,
  0x0c, 0x00, 0x00, 0x00, 0x08, 0x00, 0x0e, 0x00, 0x08, 0x00, 0x04, 0x00,
  0x08, 0x00, 0x00, 0x00, 0x10, 0x00, 0x00, 0x00, 0x24, 0x00, 0x00, 0x00,
  0x00, 0x00, 0x06, 0x00, 0x08, 0x00, 0x04, 0x00, 0x06, 0x00, 0x00, 0x00,
  0x04, 0x00, 0x00, 0x00, 0x00, 0x00, 0x00, 0x00, 0x00, 0x00, 0x0a, 0x00,
  0x10, 0x00, 0x0c, 0x00, 0x08, 0x00, 0x04, 0x00, 0x0a, 0x00, 0x00, 0x00,
  0x02, 0x00, 0x00, 0x00, 0x02, 0x00, 0x00, 0x00, 0x04, 0x00, 0x00, 0x00,
  0x06, 0x00, 0x00, 0x00, 0x32, 0x2e, 0x31, 0x33, 0x2e, 0x30, 0x00, 0x00,
  0x72, 0xee, 0xff, 0xff, 0x04, 0x00, 0x00, 0x00, 0x10, 0x00, 0x00, 0x00,
  0x31, 0x2e, 0x31, 0x34, 0x2e, 0x30, 0x00, 0x00, 0x00, 0x00, 0x00, 0x00,
  0x00, 0x00, 0x00, 0x00, 0xdc, 0xce, 0xff, 0xff, 0xe0, 0xce, 0xff, 0xff,
  0xe4, 0xce, 0xff, 0xff, 0xe8, 0xce, 0xff, 0xff, 0xec, 0xce, 0xff, 0xff,
  0xf0, 0xce, 0xff, 0xff, 0xf4, 0xce, 0xff, 0xff, 0xf8, 0xce, 0xff, 0xff,
  0xfc, 0xce, 0xff, 0xff, 0x00, 0xcf, 0xff, 0xff, 0x04, 0xcf, 0xff, 0xff,
  0x08, 0xcf, 0xff, 0xff, 0x0c, 0xcf, 0xff, 0xff, 0x10, 0xcf, 0xff, 0xff,
  0x14, 0xcf, 0xff, 0xff, 0x18, 0xcf, 0xff, 0xff, 0x1c, 0xcf, 0xff, 0xff,
  0x20, 0xcf, 0xff, 0xff, 0x24, 0xcf, 0xff, 0xff, 0x28, 0xcf, 0xff, 0xff,
  0x2c, 0xcf, 0xff, 0xff, 0x30, 0xcf, 0xff, 0xff, 0x34, 0xcf, 0xff, 0xff,
  0x38, 0xcf, 0xff, 0xff, 0x3c, 0xcf, 0xff, 0xff, 0x40, 0xcf, 0xff, 0xff,
  0x44, 0xcf, 0xff, 0xff, 0x48, 0xcf, 0xff, 0xff, 0x4c, 0xcf, 0xff, 0xff,
  0x50, 0xcf, 0xff, 0xff, 0x54, 0xcf, 0xff, 0xff, 0x58, 0xcf, 0xff, 0xff,
  0x5c, 0xcf, 0xff, 0xff, 0x60, 0xcf, 0xff, 0xff, 0x64, 0xcf, 0xff, 0xff,
  0x68, 0xcf, 0xff, 0xff, 0x6c, 0xcf, 0xff, 0xff, 0x70, 0xcf, 0xff, 0xff,
  0x74, 0xcf, 0xff, 0xff, 0x78, 0xcf, 0xff, 0xff, 0x7c, 0xcf, 0xff, 0xff,
  0x80, 0xcf, 0xff, 0xff, 0x84, 0xcf, 0xff, 0xff, 0x88, 0xcf, 0xff, 0xff,
  0x8c, 0xcf, 0xff, 0xff, 0x90, 0xcf, 0xff, 0xff, 0x94, 0xcf, 0xff, 0xff,
  0x98, 0xcf, 0xff, 0xff, 0x9c, 0xcf, 0xff, 0xff, 0xa0, 0xcf, 0xff, 0xff,
  0xa4, 0xcf, 0xff, 0xff, 0xa8, 0xcf, 0xff, 0xff, 0xac, 0xcf, 0xff, 0xff,
  0xb0, 0xcf, 0xff, 0xff, 0xb4, 0xcf, 0xff, 0xff, 0xb8, 0xcf, 0xff, 0xff,
  0xbc, 0xcf, 0xff, 0xff, 0x72, 0xef, 0xff, 0xff, 0x04, 0x00, 0x00, 0x00,
  0x20, 0x00, 0x00, 0x00, 0x3a, 0x26, 0x03, 0xbf, 0x86, 0x99, 0x81, 0x3d,
  0x58, 0x50, 0xf3, 0x3e, 0xf0, 0xcc, 0x1f, 0x3d, 0xb4, 0xe5, 0x25, 0x3e,
  0x2c, 0x3c, 0x46, 0xbe, 0x4a, 0x54, 0x2c, 0x3e, 0x2f, 0xe2, 0x41, 0xbe,
  0x9e, 0xef, 0xff, 0xff, 0x04, 0x00, 0x00, 0x00, 0x00, 0x02, 0x00, 0x00,
  0xbe, 0xa3, 0xe8, 0x3e, 0x1b, 0x0b, 0x29, 0x3e, 0x4e, 0x45, 0x1c, 0xbe,
  0xe1, 0xc3, 0x43, 0x3e, 0x80, 0xbd, 0x91, 0x3e, 0x73, 0x3b, 0xb3, 0x3e,
  0x8f, 0xf4, 0xc8, 0x3e, 0x04, 0xaa, 0xc5, 0x3b, 0x48, 0xe6, 0xa5, 0xbd,
  0xbf, 0x05, 0xb2, 0xbe, 0x49, 0xc1, 0x96, 0xbe, 0xfe, 0x0a, 0x1f, 0x3e,
  0x6c, 0x89, 0x8d, 0x3d, 0x53, 0x74, 0xf9, 0xbd, 0xd3, 0x85, 0x9f, 0xbd,
  0xf0, 0x24, 0x03, 0xbe, 0xda, 0x38, 0x8b, 0x3b, 0x2c, 0x3f, 0xbe, 0x3d,
  0x0d, 0xf3, 0xfd, 0x3e, 0xc0, 0xad, 0x33, 0xbe, 0x75, 0x4b, 0x90, 0x3e,
  0xa2, 0x2c, 0x07, 0xbe, 0xea, 0xd3, 0xe8, 0x3d, 0x9b, 0x75, 0x44, 0xbe,
  0x76, 0xf1, 0x03, 0xbf, 0x89, 0xa5, 0xa2, 0xbe, 0x47, 0xda, 0x8a, 0xbd,
  0x0f, 0x52, 0xdc, 0x3e, 0x85, 0x2a, 0xfa, 0x3e, 0x49, 0x2d, 0x85, 0x3e,
  0x7e, 0x8a, 0xb3, 0x3c, 0xa2, 0xb5, 0x9f, 0x3e, 0xa1, 0xdf, 0xa7, 0xbd,
  0xdf, 0xab, 0x9c, 0xbe, 0x5d, 0x16, 0x9d, 0xbe, 0x01, 0x22, 0xd4, 0xbe,
  0xb5, 0xa8, 0xef, 0x3e, 0xe7, 0xb9, 0x46, 0xbe, 0xbe, 0x5e, 0xd6, 0x3e,
  0x90, 0x62, 0x82, 0xbd, 0x50, 0xba, 0xb2, 0x3d, 0xeb, 0xcd, 0xe5, 0x3e,
  0x62, 0x1e, 0xc1, 0xbc, 0xfa, 0xe7, 0xab, 0x3b, 0x1b, 0xec, 0x8b, 0x3d,
  0xfa, 0x8e, 0x71, 0xbc, 0x2f, 0xb6, 0xb6, 0xbe, 0x5d, 0x54, 0x8f, 0xbe,
  0xe8, 0x4e, 0xf9, 0x3e, 0x8c, 0x00, 0xa1, 0x3e, 0x60, 0x54, 0xf7, 0x3e,
  0x1c, 0x54, 0xcb, 0x3e, 0x1c, 0x38, 0xa1, 0x3e, 0x14, 0x72, 0xd4, 0x3e,
  0xf0, 0x90, 0xba, 0xbe, 0x80, 0xa3, 0xda, 0x3c, 0x44, 0x4c, 0xa1, 0x3e,
  0x28, 0x5c, 0xf8, 0x3e, 0xc0, 0xc2, 0xf1, 0x3c, 0xd0, 0xdf, 0xc2, 0xbd,
  0xc0, 0x9d, 0xd0, 0xbc, 0x00, 0x97, 0x35, 0xbc, 0x28, 0x24, 0x25, 0x3e,
  0x20, 0xa3, 0x52, 0xbd, 0x19, 0xe1, 0x47, 0xbe, 0xfd, 0x0e, 0xa7, 0x3e,
  0xa0, 0x38, 0xba, 0xbd, 0x38, 0xae, 0x34, 0xbe, 0xe1, 0x92, 0x91, 0x3e,
  0x2b, 0xb9, 0xaf, 0xbe, 0x70, 0x19, 0x43, 0xbd, 0x59, 0x14, 0x8e, 0x3e,
  0x52, 0x46, 0x87, 0xbc, 0x18, 0x35, 0x64, 0x3e, 0x85, 0xc4, 0xa0, 0xbe,
  0xab, 0x86, 0xd5, 0x3e, 0x07, 0x0d, 0xb9, 0x3e, 0x2c, 0x0e, 0xa8, 0xbe,
  0x1a, 0xd2, 0x35, 0xbe, 0x37, 0x45, 0x32, 0x3e, 0x08, 0xbe, 0x33, 0x3e,
  0x90, 0x62, 0x9c, 0xbd, 0x90, 0x03, 0xd3, 0xbe, 0x00, 0x0d, 0x83, 0x3d,
  0x44, 0xdd, 0xea, 0xbe, 0xd0, 0x38, 0xf0, 0x3d, 0x48, 0xbc, 0x94, 0xbe,
  0x0c, 0x75, 0x9f, 0x3e, 0x90, 0xb7, 0x67, 0xbe, 0xe0, 0x54, 0xde, 0x3d,
  0x38, 0x06, 0xb6, 0x3e, 0xd0, 0xa8, 0x95, 0x3d, 0x08, 0x7f, 0xd7, 0xbe,
  0xc0, 0x56, 0x99, 0x3d, 0x4c, 0x64, 0xd5, 0xbe, 0x0c, 0x1a, 0xee, 0x3e,
  0x62, 0x4c, 0xe5, 0xbe, 0xd7, 0x0c, 0x86, 0xbc, 0x00, 0x00, 0xbe, 0xbe,
  0x02, 0x28, 0xe2, 0x3e, 0x33, 0x72, 0xb1, 0x3e, 0x19, 0xa1, 0xd4, 0xbe,
  0xb6, 0xc9, 0xf4, 0x3e, 0xd7, 0xd5, 0x8e, 0x3e, 0x20, 0xa9, 0x2d, 0xbe,
  0x12, 0x36, 0xa5, 0xbe, 0x17, 0x05, 0x3d, 0x3d, 0xc5, 0x21, 0x47, 0x3e,
  0xeb, 0x93, 0x94, 0xbe, 0xfe, 0x97, 0xf4, 0x3e, 0x04, 0xe7, 0xd3, 0x3e,
  0x0f, 0x37, 0x7a, 0xbe, 0x61, 0xc0, 0x8d, 0xbc, 0xdc, 0x2c, 0x1d, 0xbe,
  0x73, 0x4b, 0x02, 0xbe, 0x48, 0xbd, 0x74, 0xbc, 0x15, 0x67, 0x30, 0x3e,
  0xec, 0xec, 0x41, 0x3d, 0x78, 0x52, 0xc8, 0x3e, 0xec, 0xf2, 0x04, 0x3e,
  0x8f, 0xc3, 0xe4, 0xbe, 0x61, 0x54, 0xfe, 0xbc, 0x6d, 0x2a, 0x59, 0xbc,
  0xaf, 0x4a, 0x05, 0xbe, 0xd4, 0x04, 0xf8, 0x3d, 0x75, 0x2f, 0x9b, 0x3e,
  0xea, 0x9b, 0xcb, 0x3e, 0x24, 0x72, 0xb0, 0xbd, 0xaa, 0xf1, 0xff, 0xff,
  0x04, 0x00, 0x00, 0x00, 0x40, 0x00, 0x00, 0x00, 0x18, 0x2c, 0xc3, 0x3d,
  0x9f, 0x15, 0x91, 0x3d, 0x16, 0x0f, 0xef, 0x3e, 0x03, 0xa7, 0xaf, 0xbc,
  0xe0, 0x9d, 0x9a, 0xbe, 0x91, 0x5d, 0x87, 0xbe, 0xfb, 0xc9, 0xdc, 0x3e,
  0xf1, 0x41, 0xa8, 0x3e, 0x2b, 0xa4, 0xfd, 0xbe, 0xb7, 0xf4, 0x8b, 0x3e,
  0xd0, 0xac, 0x12, 0x3e, 0x38, 0xc8, 0xa2, 0xbe, 0x6e, 0xf2, 0x70, 0x3e,
  0xb2, 0x1c, 0xc7, 0x3e, 0x31, 0x79, 0x0a, 0x3d, 0xd4, 0xdb, 0x02, 0xbf,
  0xf6, 0xf1, 0xff, 0xff, 0x04, 0x00, 0x00, 0x00, 0x00, 0x04, 0x00, 0x00,
  0xfd, 0x51, 0xce, 0x3e, 0x43, 0x14, 0xd0, 0xbd, 0x31, 0x96, 0xd9, 0x3d,
  0x31, 0x81, 0xc3, 0xbe, 0xe6, 0x1b, 0x55, 0xbe, 0xcd, 0x73, 0xcb, 0xbe,
  0x8f, 0x24, 0x83, 0xbd, 0x06, 0x46, 0xf8, 0xbd, 0xc0, 0xbd, 0xc2, 0x3e,
  0x1b, 0x98, 0x52, 0xbe, 0x08, 0xde, 0x99, 0xbe, 0x8c, 0xb5, 0x60, 0x3d,
  0xcc, 0xd6, 0x7d, 0x3d, 0xe2, 0xa6, 0xa3, 0xbd, 0xce, 0xe4, 0xba, 0x3e,
  0x16, 0x8b, 0x8a, 0x3e, 0x0d, 0x40, 0x7c, 0xbe, 0xa4, 0x31, 0x33, 0x3d,
  0x77, 0x62, 0x6e, 0xbe, 0x42, 0xf5, 0xf1, 0x3d, 0x5c, 0x8f, 0x14, 0x3d,
  0x2b, 0x0c, 0xf8, 0xbd, 0xf8, 0x76, 0x3a, 0xbe, 0xff, 0x05, 0x74, 0xbe,
  0x65, 0xf5, 0xb6, 0x3e, 0xb3, 0x8f, 0xbf, 0xbc, 0x45, 0x3a, 0x3f, 0x3e,
  0xb8, 0xa8, 0x09, 0x3f, 0xb7, 0x7b, 0x98, 0x3e, 0x88, 0x08, 0x94, 0x3e,
  0xac, 0x29, 0x98, 0xbc, 0x71, 0xab, 0xff, 0xbd, 0x48, 0x9d, 0x3e, 0x3d,
  0x64, 0xc1, 0x06, 0x3d, 0x31, 0x4b, 0xb7, 0xbe, 0xe8, 0x6b, 0x0c, 0xbe,
  0x84, 0xd8, 0x2f, 0xbf, 0xb0, 0x1b, 0x41, 0x3e, 0xbb, 0xf7, 0x4d, 0x3e,
  0xed, 0x00, 0x05, 0x3c, 0x89, 0x4f, 0x21, 0xbc, 0x3d, 0x27, 0xe5, 0x3d,
  0x3d, 0x1f, 0xce, 0x3e, 0x62, 0x49, 0x55, 0x3d, 0xcf, 0x42, 0x5c, 0x3b,
  0xa2, 0xbf, 0x66, 0xbd, 0x92, 0x62, 0x84, 0x3e, 0xcb, 0x1a, 0x95, 0xbe,
  0x0f, 0x7a, 0xd4, 0x3e, 0x90, 0xa1, 0xac, 0xbe, 0xa0, 0x7b, 0x06, 0xbb,
  0x21, 0xab, 0x07, 0x3d, 0xaa, 0x32, 0x9d, 0x3d, 0x98, 0xcb, 0x76, 0x3d,
  0x3c, 0x74, 0x4c, 0x3e, 0x91, 0x2a, 0x8a, 0xbe, 0xb1, 0x38, 0x88, 0xbd,
  0x13, 0x03, 0xa2, 0xbb, 0x3a, 0x11, 0xf5, 0xbd, 0xaf, 0x89, 0x69, 0xbe,
  0x2c, 0x8c, 0x75, 0x3d, 0xc9, 0x2c, 0x12, 0x3f, 0xaf, 0xdc, 0xc1, 0x3d,
  0x24, 0x38, 0x86, 0xbe, 0x5d, 0x1b, 0xf9, 0x3d, 0xb7, 0xd7, 0x6e, 0xbe,
  0xf1, 0x26, 0x50, 0xbe, 0x64, 0x41, 0xe5, 0x3e, 0x16, 0xab, 0x03, 0x3c,
  0xa3, 0x4c, 0xd0, 0xbe, 0xfb, 0x3e, 0x84, 0xbd, 0x83, 0xbd, 0x61, 0xbe,
  0x31, 0xbd, 0x6a, 0xbe, 0x3d, 0x3b, 0xf5, 0xbc, 0x16, 0xe7, 0x4a, 0x3e,
  0x2e, 0xb6, 0x84, 0xbe, 0xdb, 0xbe, 0xa2, 0x3e, 0x21, 0x71, 0x8d, 0xbe,
  0xfa, 0x8b, 0x3f, 0x3e, 0xa1, 0x36, 0x38, 0x3e, 0x37, 0xf8, 0xf9, 0xbd,
  0x8a, 0xb0, 0x66, 0xbe, 0x99, 0x7e, 0x98, 0xbd, 0xd4, 0xad, 0xaf, 0xbe,
  0x94, 0x42, 0x8e, 0xbe, 0x84, 0x04, 0x79, 0x3d, 0xeb, 0x7d, 0x4c, 0xbe,
  0xd1, 0xb0, 0x71, 0xbe, 0x50, 0x2e, 0x7e, 0xbe, 0xeb, 0x7c, 0x6d, 0xbd,
  0x4d, 0x94, 0x44, 0x3e, 0x65, 0x02, 0x54, 0xbc, 0x11, 0x3c, 0x8c, 0x3d,
  0xc5, 0xeb, 0x75, 0x3e, 0x66, 0x19, 0xed, 0xbe, 0xf7, 0x46, 0xef, 0x3e,
  0x39, 0x92, 0x71, 0xbd, 0x6c, 0x83, 0xd9, 0x3c, 0x50, 0xe3, 0xb1, 0x3e,
  0xf5, 0x01, 0x92, 0xbe, 0x37, 0x2b, 0xe9, 0xbd, 0x50, 0x3d, 0x95, 0xbe,
  0x9a, 0xd3, 0x91, 0xbe, 0x78, 0x0b, 0x08, 0x3e, 0x67, 0x75, 0x3f, 0x3d,
  0xdd, 0x03, 0xb3, 0xbd, 0xe4, 0x3e, 0x6e, 0x3e, 0x3a, 0x6f, 0x13, 0xbe,
  0x65, 0x51, 0xd1, 0x3d, 0x6a, 0xa0, 0xce, 0xbc, 0x91, 0x25, 0xc0, 0xbe,
  0xfe, 0x90, 0x1c, 0xbf, 0x84, 0x25, 0x06, 0xbd, 0xb2, 0xa9, 0x3e, 0xbe,
  0x02, 0x1d, 0xd5, 0x3d, 0xb2, 0xba, 0x20, 0x3e, 0x8e, 0x92, 0x1b, 0xbd,
  0x15, 0xa3, 0x98, 0x3e, 0xa8, 0xf8, 0x92, 0xbe, 0xa1, 0xa8, 0xab, 0x3e,
  0x18, 0xb2, 0xd7, 0x3e, 0xa3, 0xb0, 0x05, 0x3d, 0xb8, 0x4b, 0x25, 0x3e,
  0x19, 0xdf, 0xcd, 0xbe, 0xb3, 0xf6, 0xe6, 0x3e, 0x4d, 0xbc, 0x1a, 0x3e,
  0x11, 0x2d, 0xef, 0x3d, 0x3f, 0x51, 0xb7, 0x3d, 0xe7, 0x73, 0x1c, 0xbf,
  0x97, 0xeb, 0x1e, 0xbf, 0x7e, 0x35, 0x58, 0x3d, 0x7e, 0xf1, 0x60, 0xbd,
  0xeb, 0xdd, 0x81, 0xbd, 0xe8, 0xc7, 0x28, 0xbe, 0xd5, 0xb9, 0xb5, 0x3d,
  0x92, 0x9c, 0x58, 0x3d, 0xfb, 0xe7, 0x09, 0xbd, 0x75, 0x90, 0x22, 0xbd,
  0x52, 0xed, 0x83, 0xbe, 0x50, 0x75, 0x14, 0x3c, 0x3f, 0x86, 0x26, 0xbe,
  0x25, 0x1e, 0x8c, 0xbd, 0x03, 0x4a, 0x65, 0x3e, 0x40, 0x76, 0x17, 0xbe,
  0x0f, 0x02, 0x03, 0x3e, 0xd0, 0x1f, 0x15, 0xbe, 0x31, 0x63, 0x7b, 0xbe,
  0x0f, 0xb2, 0xe2, 0x3d, 0x40, 0x48, 0x06, 0xbe, 0x1a, 0x24, 0xd1, 0xbd,
  0x77, 0xd3, 0xfd, 0xbc, 0xb0, 0x2b, 0x8e, 0xbd, 0x62, 0x53, 0xa4, 0x3e,
  0x92, 0x3b, 0x19, 0x3f, 0x66, 0x9f, 0xa7, 0xbe, 0x64, 0x0b, 0x0b, 0xbd,
  0x0a, 0x37, 0xee, 0xbd, 0xb0, 0xe9, 0x22, 0xbe, 0x91, 0x0b, 0xee, 0xbe,
  0x7b, 0x23, 0x8a, 0xbd, 0x75, 0x1d, 0x2b, 0xbe, 0x9d, 0xc8, 0x21, 0x3e,
  0x51, 0x7a, 0x4a, 0x3e, 0x24, 0x04, 0x71, 0xbe, 0xb3, 0xc3, 0xfd, 0x3d,
  0xc0, 0x47, 0x8a, 0xbe, 0x71, 0xed, 0x01, 0xbe, 0xf4, 0x26, 0xd9, 0xbd,
  0xbf, 0x28, 0x0e, 0xbd, 0x9f, 0x12, 0x2e, 0x3f, 0xb3, 0x5b, 0x8f, 0x3e,
  0x6e, 0x25, 0xe9, 0xbd, 0x46, 0x7d, 0x0e, 0xbe, 0x7d, 0xe2, 0x88, 0x3e,
  0xd6, 0x44, 0xc7, 0x3e, 0x90, 0xf7, 0x22, 0x3e, 0x70, 0xba, 0x75, 0xbe,
  0x3a, 0x4f, 0xf4, 0x3d, 0x46, 0xda, 0x10, 0x3e, 0x0b, 0xda, 0x1c, 0x3e,
  0x60, 0x26, 0x16, 0xbe, 0xb3, 0xc0, 0x7a, 0xbe, 0xff, 0xf0, 0x32, 0x3f,
  0xc8, 0x35, 0xe4, 0x3d, 0x3a, 0x59, 0xac, 0x3e, 0x22, 0x54, 0xa6, 0xbd,
  0x91, 0xf1, 0x66, 0x3e, 0xf1, 0x4b, 0x1d, 0xbe, 0x15, 0x8d, 0xdf, 0xbd,
  0x3f, 0x1d, 0x6a, 0x3e, 0x94, 0x99, 0x92, 0xbe, 0xf9, 0xe5, 0x5b, 0x3e,
  0x5b, 0x2b, 0x73, 0xbe, 0x2a, 0x6b, 0x98, 0x3e, 0xe8, 0x5a, 0x83, 0xbe,
  0x5c, 0xef, 0x3b, 0xbe, 0x4b, 0x91, 0x47, 0xbe, 0x5d, 0xe7, 0xd1, 0xbd,
  0x34, 0x17, 0xc9, 0x3d, 0x47, 0x3c, 0x6a, 0x3e, 0x99, 0xa5, 0xa3, 0xbe,
  0xb2, 0xff, 0xb8, 0x3d, 0xd2, 0x75, 0xe1, 0xbe, 0x6f, 0x31, 0x36, 0xbe,
  0x09, 0x22, 0xdf, 0x3e, 0xc2, 0xf3, 0x2c, 0x3e, 0xde, 0xcc, 0x20, 0xbd,
  0x0c, 0xb5, 0x9c, 0xba, 0x76, 0x09, 0x71, 0x3e, 0x8d, 0xa9, 0x97, 0xbe,
  0x56, 0x89, 0x8e, 0xbe, 0xa6, 0x36, 0x94, 0xbe, 0x16, 0xdc, 0xaa, 0x3e,
  0x7d, 0xd0, 0x29, 0xbe, 0x4a, 0xdc, 0x30, 0x3e, 0xea, 0xb6, 0x13, 0x3f,
  0x7f, 0xaa, 0xc4, 0xbc, 0x2e, 0x93, 0x0e, 0x3e, 0x6f, 0xc6, 0x64, 0x3e,
  0xaa, 0xd2, 0x6a, 0x3e, 0x39, 0x37, 0x4c, 0x3e, 0x1d, 0xb0, 0xa1, 0x3b,
  0x43, 0x66, 0x23, 0xbc, 0xaa, 0x81, 0x8e, 0x3d, 0x26, 0x22, 0x8d, 0xbd,
  0x49, 0x43, 0x0e, 0x3e, 0x0d, 0xda, 0x1c, 0xbf, 0x28, 0xce, 0x60, 0xbe,
  0xc8, 0x7f, 0xba, 0x3e, 0xa9, 0x93, 0x1b, 0xbe, 0x29, 0xa2, 0xda, 0xbd,
  0x56, 0x18, 0x07, 0xbe, 0x58, 0x39, 0x5f, 0x3e, 0x7b, 0x7f, 0x8c, 0xbe,
  0x9d, 0x4e, 0xc4, 0x3d, 0xeb, 0xb3, 0xf4, 0xbe, 0x3e, 0xa3, 0x90, 0xbe,
  0xc7, 0x0e, 0x27, 0xbd, 0x00, 0x26, 0xcf, 0x3d, 0x78, 0x99, 0x2a, 0xbd,
  0x34, 0x69, 0x31, 0x3e, 0xb2, 0x74, 0xfd, 0x3a, 0xbc, 0x48, 0xfc, 0xbd,
  0xe7, 0x9f, 0xab, 0x3e, 0xb1, 0xa0, 0x46, 0xbe, 0xa1, 0xb6, 0xaa, 0xbe,
  0x2e, 0xdb, 0xb7, 0xbe, 0xe2, 0x25, 0xe6, 0x3e, 0xf4, 0xb7, 0xd3, 0xbd,
  0xfa, 0x0e, 0x05, 0xbe, 0xc4, 0x3b, 0x75, 0x3c, 0x2c, 0x5b, 0x1f, 0x3d,
  0xed, 0x56, 0xe4, 0xbe, 0x5a, 0x05, 0xc0, 0x3e, 0xef, 0x9b, 0x07, 0x3d,
  0x0e, 0x46, 0xf1, 0x3d, 0x50, 0xd6, 0xff, 0xff, 0x06, 0xf6, 0xff, 0xff,
  0x04, 0x00, 0x00, 0x00, 0x04, 0x00, 0x00, 0x00, 0x01, 0x00, 0x00, 0x00,
  0x16, 0xf6, 0xff, 0xff, 0x04, 0x00, 0x00, 0x00, 0x0c, 0x00, 0x00, 0x00,
  0x01, 0x00, 0x00, 0x00, 0x00, 0x00, 0x00, 0x00, 0x02, 0x00, 0x00, 0x00,
  0x2e, 0xf6, 0xff, 0xff, 0x04, 0x00, 0x00, 0x00, 0x04, 0x00, 0x00, 0x00,
  0x00, 0x00, 0x00, 0x00, 0x3e, 0xf6, 0xff, 0xff, 0x04, 0x00, 0x00, 0x00,
  0x04, 0x00, 0x00, 0x00, 0x10, 0x00, 0x00, 0x00, 0x4e, 0xf6, 0xff, 0xff,
  0x04, 0x00, 0x00, 0x00, 0x04, 0x00, 0x00, 0x00, 0x7e, 0x0b, 0xc8, 0x3c,
  0x5e, 0xf6, 0xff, 0xff, 0x04, 0x00, 0x00, 0x00, 0x20, 0x00, 0x00, 0x00,
  0x3f, 0x80, 0xc4, 0xbc, 0x39, 0x4b, 0xad, 0x3c, 0x4e, 0xfd, 0xc3, 0x3c,
  0x00, 0x00, 0x00, 0x00, 0x16, 0xf1, 0xb6, 0x3c, 0x00, 0x00, 0x00, 0x00,
  0xec, 0x91, 0xa4, 0x3c, 0x41, 0xe4, 0xac, 0xbc, 0x8a, 0xf6, 0xff, 0xff,
  0x04, 0x00, 0x00, 0x00, 0x40, 0x00, 0x00, 0x00, 0x45, 0x33, 0x02, 0xbd,
  0x8d, 0xea, 0x93, 0xbc, 0xfd, 0x01, 0xb2, 0x3c, 0xca, 0x2f, 0xd4, 0xbc,
  0xb4, 0x24, 0xf0, 0xbc, 0x79, 0x79, 0xd4, 0x3c, 0x33, 0x37, 0xd6, 0xba,
  0xe3, 0x2a, 0xfa, 0x3c, 0xf1, 0xed, 0xb2, 0x3c, 0xab, 0x50, 0xf3, 0x3c,
  0x1a, 0xfb, 0xbb, 0x3c, 0x79, 0x9f, 0x3e, 0x3c, 0xbb, 0x0f, 0x87, 0xbb,
  0x68, 0xc7, 0x23, 0xbc, 0x37, 0x49, 0xe6, 0xbc, 0xbf, 0x03, 0xa3, 0xbc,
  0x24, 0xd7, 0xff, 0xff, 0x28, 0xd7, 0xff, 0xff, 0x0f, 0x00, 0x00, 0x00,
  0x4d, 0x4c, 0x49, 0x52, 0x20, 0x43, 0x6f, 0x6e, 0x76, 0x65, 0x72, 0x74,
  0x65, 0x64, 0x2e, 0x00, 0x01, 0x00, 0x00, 0x00, 0x14, 0x00, 0x00, 0x00,
  0x00, 0x00, 0x0e, 0x00, 0x18, 0x00, 0x14, 0x00, 0x10, 0x00, 0x0c, 0x00,
  0x08, 0x00, 0x04, 0x00, 0x0e, 0x00, 0x00, 0x00, 0x14, 0x00, 0x00, 0x00,
  0x1c, 0x00, 0x00, 0x00, 0xfc, 0x09, 0x00, 0x00, 0x00, 0x0a, 0x00, 0x00,
  0x04, 0x0a, 0x00, 0x00, 0x04, 0x00, 0x00, 0x00, 0x6d, 0x61, 0x69, 0x6e,
  0x00, 0x00, 0x00, 0x00, 0x30, 0x00, 0x00, 0x00, 0xac, 0x09, 0x00, 0x00,
  0x4c, 0x09, 0x00, 0x00, 0x14, 0x09, 0x00, 0x00, 0xa8, 0x08, 0x00, 0x00,
  0x70, 0x08, 0x00, 0x00, 0x48, 0x08, 0x00, 0x00, 0x10, 0x08, 0x00, 0x00,
  0xd8, 0x07, 0x00, 0x00, 0xa4, 0x07, 0x00, 0x00, 0x80, 0x07, 0x00, 0x00,
  0x48, 0x07, 0x00, 0x00, 0x10, 0x07, 0x00, 0x00, 0xd8, 0x06, 0x00, 0x00,
  0xa0, 0x06, 0x00, 0x00, 0x68, 0x06, 0x00, 0x00, 0x30, 0x06, 0x00, 0x00,
  0xf8, 0x05, 0x00, 0x00, 0xc4, 0x05, 0x00, 0x00, 0xa0, 0x05, 0x00, 0x00,
  0x68, 0x05, 0x00, 0x00, 0x30, 0x05, 0x00, 0x00, 0xfc, 0x04, 0x00, 0x00,
  0xd8, 0x04, 0x00, 0x00, 0xa0, 0x04, 0x00, 0x00, 0x68, 0x04, 0x00, 0x00,
  0x34, 0x04, 0x00, 0x00, 0x10, 0x04, 0x00, 0x00, 0xd8, 0x03, 0x00, 0x00,
  0xa0, 0x03, 0x00, 0x00, 0x6c, 0x03, 0x00, 0x00, 0x48, 0x03, 0x00, 0x00,
  0x10, 0x03, 0x00, 0x00, 0xdc, 0x02, 0x00, 0x00, 0xb8, 0x02, 0x00, 0x00,
  0x80, 0x02, 0x00, 0x00, 0x4c, 0x02, 0x00, 0x00, 0x28, 0x02, 0x00, 0x00,
  0xf0, 0x01, 0x00, 0x00, 0xbc, 0x01, 0x00, 0x00, 0x98, 0x01, 0x00, 0x00,
  0x60, 0x01, 0x00, 0x00, 0x2c, 0x01, 0x00, 0x00, 0x08, 0x01, 0x00, 0x00,
  0xd0, 0x00, 0x00, 0x00, 0x9c, 0x00, 0x00, 0x00, 0x78, 0x00, 0x00, 0x00,
  0x3c, 0x00, 0x00, 0x00, 0x04, 0x00, 0x00, 0x00, 0x7e, 0xf7, 0xff, 0xff,
  0x14, 0x00, 0x00, 0x00, 0x00, 0x00, 0x00, 0x08, 0x10, 0x00, 0x00, 0x00,
  0x14, 0x00, 0x00, 0x00, 0x06, 0x00, 0x00, 0x00, 0x58, 0xd8, 0xff, 0xff,
  0x01, 0x00, 0x00, 0x00, 0x45, 0x00, 0x00, 0x00, 0x03, 0x00, 0x00, 0x00,
  0x44, 0x00, 0x00, 0x00, 0x0c, 0x00, 0x00, 0x00, 0x03, 0x00, 0x00, 0x00,
  0xb2, 0xf7, 0xff, 0xff, 0x14, 0x00, 0x00, 0x00, 0x00, 0x00, 0x00, 0x08,
  0x14, 0x00, 0x00, 0x00, 0x18, 0x00, 0x00, 0x00, 0x06, 0x00, 0x00, 0x00,
  0x4a, 0xf7, 0xff, 0xff, 0x00, 0x00, 0x00, 0x01, 0x01, 0x00, 0x00, 0x00,
  0x44, 0x00, 0x00, 0x00, 0x03, 0x00, 0x00, 0x00, 0x43, 0x00, 0x00, 0x00,
  0x0b, 0x00, 0x00, 0x00, 0x02, 0x00, 0x00, 0x00, 0x1a, 0xf8, 0xff, 0xff,
  0x0c, 0x00, 0x00, 0x00, 0x10, 0x00, 0x00, 0x00, 0x08, 0x00, 0x00, 0x00,
  0x01, 0x00, 0x00, 0x00, 0x43, 0x00, 0x00, 0x00, 0x01, 0x00, 0x00, 0x00,
  0x42, 0x00, 0x00, 0x00, 0x0a, 0xf8, 0xff, 0xff, 0x14, 0x00, 0x00, 0x00,
  0x00, 0x00, 0x00, 0x0b, 0x10, 0x00, 0x00, 0x00, 0x14, 0x00, 0x00, 0x00,
  0x07, 0x00, 0x00, 0x00, 0xe4, 0xd8, 0xff, 0xff, 0x01, 0x00, 0x00, 0x00,
  0x42, 0x00, 0x00, 0x00, 0x02, 0x00, 0x00, 0x00, 0x25, 0x00, 0x00, 0x00,
  0x41, 0x00, 0x00, 0x00, 0x3a, 0xf8, 0xff, 0xff, 0x14, 0x00, 0x00, 0x00,
  0x00, 0x00, 0x00, 0x08, 0x10, 0x00, 0x00, 0x00, 0x14, 0x00, 0x00, 0x00,
  0x06, 0x00, 0x00, 0x00, 0x14, 0xd9, 0xff, 0xff, 0x01, 0x00, 0x00, 0x00,
  0x41, 0x00, 0x00, 0x00, 0x03, 0x00, 0x00, 0x00, 0x40, 0x00, 0x00, 0x00,
  0x09, 0x00, 0x00, 0x00, 0xff, 0xff, 0xff, 0xff, 0x9e, 0xf8, 0xff, 0xff,
  0x0c, 0x00, 0x00, 0x00, 0x10, 0x00, 0x00, 0x00, 0x08, 0x00, 0x00, 0x00,
  0x01, 0x00, 0x00, 0x00, 0x40, 0x00, 0x00, 0x00, 0x01, 0x00, 0x00, 0x00,
  0x3f, 0x00, 0x00, 0x00, 0x8e, 0xf8, 0xff, 0xff, 0x14, 0x00, 0x00, 0x00,
  0x00, 0x00, 0x00, 0x0b, 0x10, 0x00, 0x00, 0x00, 0x14, 0x00, 0x00, 0x00,
  0x07, 0x00, 0x00, 0x00, 0x68, 0xd9, 0xff, 0xff, 0x01, 0x00, 0x00, 0x00,
  0x3f, 0x00, 0x00, 0x00, 0x02, 0x00, 0x00, 0x00, 0x24, 0x00, 0x00, 0x00,
  0x3e, 0x00, 0x00, 0x00, 0xbe, 0xf8, 0xff, 0xff, 0x14, 0x00, 0x00, 0x00,
  0x00, 0x00, 0x00, 0x08, 0x10, 0x00, 0x00, 0x00, 0x14, 0x00, 0x00, 0x00,
  0x06, 0x00, 0x00, 0x00, 0x98, 0xd9, 0xff, 0xff, 0x01, 0x00, 0x00, 0x00,
  0x3e, 0x00, 0x00, 0x00, 0x03, 0x00, 0x00, 0x00, 0x3d, 0x00, 0x00, 0x00,
  0x09, 0x00, 0x00, 0x00, 0xff, 0xff, 0xff, 0xff, 0x22, 0xf9, 0xff, 0xff,
  0x0c, 0x00, 0x00, 0x00, 0x10, 0x00, 0x00, 0x00, 0x08, 0x00, 0x00, 0x00,
  0x01, 0x00, 0x00, 0x00, 0x3d, 0x00, 0x00, 0x00, 0x01, 0x00, 0x00, 0x00,
  0x3c, 0x00, 0x00, 0x00, 0x12, 0xf9, 0xff, 0xff, 0x14, 0x00, 0x00, 0x00,
  0x00, 0x00, 0x00, 0x0b, 0x10, 0x00, 0x00, 0x00, 0x14, 0x00, 0x00, 0x00,
  0x07, 0x00, 0x00, 0x00, 0xec, 0xd9, 0xff, 0xff, 0x01, 0x00, 0x00, 0x00,
  0x3c, 0x00, 0x00, 0x00, 0x02, 0x00, 0x00, 0x00, 0x23, 0x00, 0x00, 0x00,
  0x3b, 0x00, 0x00, 0x00, 0x42, 0xf9, 0xff, 0xff, 0x14, 0x00, 0x00, 0x00,
  0x00, 0x00, 0x00, 0x08, 0x10, 0x00, 0x00, 0x00, 0x14, 0x00, 0x00, 0x00,
  0x06, 0x00, 0x00, 0x00, 0x1c, 0xda, 0xff, 0xff, 0x01, 0x00, 0x00, 0x00,
  0x3b, 0x00, 0x00, 0x00, 0x03, 0x00, 0x00, 0x00, 0x3a, 0x00, 0x00, 0x00,
  0x09, 0x00, 0x00, 0x00, 0xff, 0xff, 0xff, 0xff, 0xa6, 0xf9, 0xff, 0xff,
  0x0c, 0x00, 0x00, 0x00, 0x10, 0x00, 0x00, 0x00, 0x08, 0x00, 0x00, 0x00,
  0x01, 0x00, 0x00, 0x00, 0x3a, 0x00, 0x00, 0x00, 0x01, 0x00, 0x00, 0x00,
  0x39, 0x00, 0x00, 0x00, 0x96, 0xf9, 0xff, 0xff, 0x14, 0x00, 0x00, 0x00,
  0x00, 0x00, 0x00, 0x0b, 0x10, 0x00, 0x00, 0x00, 0x14, 0x00, 0x00, 0x00,
  0x07, 0x00, 0x00, 0x00, 0x70, 0xda, 0xff, 0xff, 0x01, 0x00, 0x00, 0x00,
  0x39, 0x00, 0x00, 0x00, 0x02, 0x00, 0x00, 0x00, 0x22, 0x00, 0x00, 0x00,
  0x38, 0x00, 0x00, 0x00, 0xc6, 0xf9, 0xff, 0xff, 0x14, 0x00, 0x00, 0x00,
  0x00, 0x00, 0x00, 0x08, 0x10, 0x00, 0x00, 0x00, 0x14, 0x00, 0x00, 0x00,
  0x06, 0x00, 0x00, 0x00, 0xa0, 0xda, 0xff, 0xff, 0x01, 0x00, 0x00, 0x00,
  0x38, 0x00, 0x00, 0x00, 0x03, 0x00, 0x00, 0x00, 0x37, 0x00, 0x00, 0x00,
  0x09, 0x00, 0x00, 0x00, 0xff, 0xff, 0xff, 0xff, 0x2a, 0xfa, 0xff, 0xff,
  0x0c, 0x00, 0x00, 0x00, 0x10, 0x00, 0x00, 0x00, 0x08, 0x00, 0x00, 0x00,
  0x01, 0x00, 0x00, 0x00, 0x37, 0x00, 0x00, 0x00, 0x01, 0x00, 0x00, 0x00,
  0x36, 0x00, 0x00, 0x00, 0x1a, 0xfa, 0xff, 0xff, 0x14, 0x00, 0x00, 0x00,
  0x00, 0x00, 0x00, 0x0b, 0x10, 0x00, 0x00, 0x00, 0x14, 0x00, 0x00, 0x00,
  0x07, 0x00, 0x00, 0x00, 0xf4, 0xda, 0xff, 0xff, 0x01, 0x00, 0x00, 0x00,
  0x36, 0x00, 0x00, 0x00, 0x02, 0x00, 0x00, 0x00, 0x21, 0x00, 0x00, 0x00,
  0x35, 0x00, 0x00, 0x00, 0x4a, 0xfa, 0xff, 0xff, 0x14, 0x00, 0x00, 0x00,
  0x00, 0x00, 0x00, 0x08, 0x10, 0x00, 0x00, 0x00, 0x14, 0x00, 0x00, 0x00,
  0x06, 0x00, 0x00, 0x00, 0x24, 0xdb, 0xff, 0xff, 0x01, 0x00, 0x00, 0x00,
  0x35, 0x00, 0x00, 0x00, 0x03, 0x00, 0x00, 0x00, 0x34, 0x00, 0x00, 0x00,
  0x09, 0x00, 0x00, 0x00, 0xff, 0xff, 0xff, 0xff, 0xae, 0xfa, 0xff, 0xff,
  0x0c, 0x00, 0x00, 0x00, 0x10, 0x00, 0x00, 0x00, 0x08, 0x00, 0x00, 0x00,
  0x01, 0x00, 0x00, 0x00, 0x34, 0x00, 0x00, 0x00, 0x01, 0x00, 0x00, 0x00,
  0x33, 0x00, 0x00, 0x00, 0x9e, 0xfa, 0xff, 0xff, 0x14, 0x00, 0x00, 0x00,
  0x00, 0x00, 0x00, 0x0b, 0x10, 0x00, 0x00, 0x00, 0x14, 0x00, 0x00, 0x00,
  0x07, 0x00, 0x00, 0x00, 0x78, 0xdb, 0xff, 0xff, 0x01, 0x00, 0x00, 0x00,
  0x33, 0x00, 0x00, 0x00, 0x02, 0x00, 0x00, 0x00, 0x32, 0x00, 0x00, 0x00,
  0x31, 0x00, 0x00, 0x00, 0xce, 0xfa, 0xff, 0xff, 0x14, 0x00, 0x00, 0x00,
  0x00, 0x00, 0x00, 0x08, 0x10, 0x00, 0x00, 0x00, 0x14, 0x00, 0x00, 0x00,
  0x06, 0x00, 0x00, 0x00, 0xa8, 0xdb, 0xff, 0xff, 0x01, 0x00, 0x00, 0x00,
  0x32, 0x00, 0x00, 0x00, 0x03, 0x00, 0x00, 0x00, 0x14, 0x00, 0x00, 0x00,
  0x0a, 0x00, 0x00, 0x00, 0x01, 0x00, 0x00, 0x00, 0x02, 0xfb, 0xff, 0xff,
  0x14, 0x00, 0x00, 0x00, 0x00, 0x00, 0x00, 0x08, 0x10, 0x00, 0x00, 0x00,
  0x14, 0x00, 0x00, 0x00, 0x06, 0x00, 0x00, 0x00, 0xdc, 0xdb, 0xff, 0xff,
  0x01, 0x00, 0x00, 0x00, 0x31, 0x00, 0x00, 0x00, 0x03, 0x00, 0x00, 0x00,
  0x30, 0x00, 0x00, 0x00, 0x09, 0x00, 0x00, 0x00, 0xff, 0xff, 0xff, 0xff,
  0x66, 0xfb, 0xff, 0xff, 0x0c, 0x00, 0x00, 0x00, 0x10, 0x00, 0x00, 0x00,
  0x08, 0x00, 0x00, 0x00, 0x01, 0x00, 0x00, 0x00, 0x30, 0x00, 0x00, 0x00,
  0x01, 0x00, 0x00, 0x00, 0x2f, 0x00, 0x00, 0x00, 0x56, 0xfb, 0xff, 0xff,
  0x14, 0x00, 0x00, 0x00, 0x00, 0x00, 0x00, 0x0b, 0x10, 0x00, 0x00, 0x00,
  0x14, 0x00, 0x00, 0x00, 0x07, 0x00, 0x00, 0x00, 0x30, 0xdc, 0xff, 0xff,
  0x01, 0x00, 0x00, 0x00, 0x2f, 0x00, 0x00, 0x00, 0x02, 0x00, 0x00, 0x00,
  0x2e, 0x00, 0x00, 0x00, 0x2d, 0x00, 0x00, 0x00, 0x86, 0xfb, 0xff, 0xff,
  0x14, 0x00, 0x00, 0x00, 0x00, 0x00, 0x00, 0x08, 0x10, 0x00, 0x00, 0x00,
  0x14, 0x00, 0x00, 0x00, 0x06, 0x00, 0x00, 0x00, 0x60, 0xdc, 0xff, 0xff,
  0x01, 0x00, 0x00, 0x00, 0x2e, 0x00, 0x00, 0x00, 0x03, 0x00, 0x00, 0x00,
  0x13, 0x00, 0x00, 0x00, 0x0a, 0x00, 0x00, 0x00, 0x01, 0x00, 0x00, 0x00,
  0xba, 0xfb, 0xff, 0xff, 0x14, 0x00, 0x00, 0x00, 0x00, 0x00, 0x00, 0x08,
  0x10, 0x00, 0x00, 0x00, 0x14, 0x00, 0x00, 0x00, 0x06, 0x00, 0x00, 0x00,
  0x94, 0xdc, 0xff, 0xff, 0x01, 0x00, 0x00, 0x00, 0x2d, 0x00, 0x00, 0x00,
  0x03, 0x00, 0x00, 0x00, 0x2c, 0x00, 0x00, 0x00, 0x09, 0x00, 0x00, 0x00,
  0xff, 0xff, 0xff, 0xff, 0x1e, 0xfc, 0xff, 0xff, 0x0c, 0x00, 0x00, 0x00,
  0x10, 0x00, 0x00, 0x00, 0x08, 0x00, 0x00, 0x00, 0x01, 0x00, 0x00, 0x00,
  0x2c, 0x00, 0x00, 0x00, 0x01, 0x00, 0x00, 0x00, 0x2b, 0x00, 0x00, 0x00,
  0x0e, 0xfc, 0xff, 0xff, 0x14, 0x00, 0x00, 0x00, 0x00, 0x00, 0x00, 0x0b,
  0x10, 0x00, 0x00, 0x00, 0x14, 0x00, 0x00, 0x00, 0x07, 0x00, 0x00, 0x00,
  0xe8, 0xdc, 0xff, 0xff, 0x01, 0x00, 0x00, 0x00, 0x2b, 0x00, 0x00, 0x00,
  0x02, 0x00, 0x00, 0x00, 0x2a, 0x00, 0x00, 0x00, 0x29, 0x00, 0x00, 0x00,
  0x3e, 0xfc, 0xff, 0xff, 0x14, 0x00, 0x00, 0x00, 0x00, 0x00, 0x00, 0x08,
  0x10, 0x00, 0x00, 0x00, 0x14, 0x00, 0x00, 0x00, 0x06, 0x00, 0x00, 0x00,
  0x18, 0xdd, 0xff, 0xff, 0x01, 0x00, 0x00, 0x00, 0x2a, 0x00, 0x00, 0x00,
  0x03, 0x00, 0x00, 0x00, 0x12, 0x00, 0x00, 0x00, 0x0a, 0x00, 0x00, 0x00,
  0x01, 0x00, 0x00, 0x00, 0x72, 0xfc, 0xff, 0xff, 0x14, 0x00, 0x00, 0x00,
  0x00, 0x00, 0x00, 0x08, 0x10, 0x00, 0x00, 0x00, 0x14, 0x00, 0x00, 0x00,
  0x06, 0x00, 0x00, 0x00, 0x4c, 0xdd, 0xff, 0xff, 0x01, 0x00, 0x00, 0x00,
  0x29, 0x00, 0x00, 0x00, 0x03, 0x00, 0x00, 0x00, 0x28, 0x00, 0x00, 0x00,
  0x09, 0x00, 0x00, 0x00, 0xff, 0xff, 0xff, 0xff, 0xd6, 0xfc, 0xff, 0xff,
  0x0c, 0x00, 0x00, 0x00, 0x10, 0x00, 0x00, 0x00, 0x08, 0x00, 0x00, 0x00,
  0x01, 0x00, 0x00, 0x00, 0x28, 0x00, 0x00, 0x00, 0x01, 0x00, 0x00, 0x00,
  0x27, 0x00, 0x00, 0x00, 0xc6, 0xfc, 0xff, 0xff, 0x14, 0x00, 0x00, 0x00,
  0x00, 0x00, 0x00, 0x0b, 0x10, 0x00, 0x00, 0x00, 0x14, 0x00, 0x00, 0x00,
  0x07, 0x00, 0x00, 0x00, 0xa0, 0xdd, 0xff, 0xff, 0x01, 0x00, 0x00, 0x00,
  0x27, 0x00, 0x00, 0x00, 0x02, 0x00, 0x00, 0x00, 0x26, 0x00, 0x00, 0x00,
  0x20, 0x00, 0x00, 0x00, 0xf6, 0xfc, 0xff, 0xff, 0x14, 0x00, 0x00, 0x00,
  0x00, 0x00, 0x00, 0x08, 0x10, 0x00, 0x00, 0x00, 0x14, 0x00, 0x00, 0x00,
  0x06, 0x00, 0x00, 0x00, 0xd0, 0xdd, 0xff, 0xff, 0x01, 0x00, 0x00, 0x00,
  0x26, 0x00, 0x00, 0x00, 0x03, 0x00, 0x00, 0x00, 0x11, 0x00, 0x00, 0x00,
  0x0a, 0x00, 0x00, 0x00, 0x01, 0x00, 0x00, 0x00, 0x2a, 0xfd, 0xff, 0xff,
  0x14, 0x00, 0x00, 0x00, 0x00, 0x00, 0x00, 0x08, 0x10, 0x00, 0x00, 0x00,
  0x14, 0x00, 0x00, 0x00, 0x06, 0x00, 0x00, 0x00, 0x04, 0xde, 0xff, 0xff,
  0x01, 0x00, 0x00, 0x00, 0x25, 0x00, 0x00, 0x00, 0x03, 0x00, 0x00, 0x00,
  0x19, 0x00, 0x00, 0x00, 0x0a, 0x00, 0x00, 0x00, 0x01, 0x00, 0x00, 0x00,
  0x5e, 0xfd, 0xff, 0xff, 0x14, 0x00, 0x00, 0x00, 0x00, 0x00, 0x00, 0x08,
  0x10, 0x00, 0x00, 0x00, 0x14, 0x00, 0x00, 0x00, 0x06, 0x00, 0x00, 0x00,
  0x38, 0xde, 0xff, 0xff, 0x01, 0x00, 0x00, 0x00, 0x24, 0x00, 0x00, 0x00,
  0x03, 0x00, 0x00, 0x00, 0x18, 0x00, 0x00, 0x00, 0x0a, 0x00, 0x00, 0x00,
  0x01, 0x00, 0x00, 0x00, 0x92, 0xfd, 0xff, 0xff, 0x14, 0x00, 0x00, 0x00,
  0x00, 0x00, 0x00, 0x08, 0x10, 0x00, 0x00, 0x00, 0x14, 0x00, 0x00, 0x00,
  0x06, 0x00, 0x00, 0x00, 0x6c, 0xde, 0xff, 0xff, 0x01, 0x00, 0x00, 0x00,
  0x23, 0x00, 0x00, 0x00, 0x03, 0x00, 0x00, 0x00, 0x17, 0x00, 0x00, 0x00,
  0x0a, 0x00, 0x00, 0x00, 0x01, 0x00, 0x00, 0x00, 0xc6, 0xfd, 0xff, 0xff,
  0x14, 0x00, 0x00, 0x00, 0x00, 0x00, 0x00, 0x08, 0x10, 0x00, 0x00, 0x00,
  0x14, 0x00, 0x00, 0x00, 0x06, 0x00, 0x00, 0x00, 0xa0, 0xde, 0xff, 0xff,
  0x01, 0x00, 0x00, 0x00, 0x22, 0x00, 0x00, 0x00, 0x03, 0x00, 0x00, 0x00,
  0x16, 0x00, 0x00, 0x00, 0x0a, 0x00, 0x00, 0x00, 0x01, 0x00, 0x00, 0x00,
  0xfa, 0xfd, 0xff, 0xff, 0x14, 0x00, 0x00, 0x00, 0x00, 0x00, 0x00, 0x08,
  0x10, 0x00, 0x00, 0x00, 0x14, 0x00, 0x00, 0x00, 0x06, 0x00, 0x00, 0x00,
  0xd4, 0xde, 0xff, 0xff, 0x01, 0x00, 0x00, 0x00, 0x21, 0x00, 0x00, 0x00,
  0x03, 0x00, 0x00, 0x00, 0x15, 0x00, 0x00, 0x00, 0x0a, 0x00, 0x00, 0x00,
  0x01, 0x00, 0x00, 0x00, 0x2e, 0xfe, 0xff, 0xff, 0x14, 0x00, 0x00, 0x00,
  0x00, 0x00, 0x00, 0x08, 0x10, 0x00, 0x00, 0x00, 0x14, 0x00, 0x00, 0x00,
  0x06, 0x00, 0x00, 0x00, 0x08, 0xdf, 0xff, 0xff, 0x01, 0x00, 0x00, 0x00,
  0x20, 0x00, 0x00, 0x00, 0x03, 0x00, 0x00, 0x00, 0x1f, 0x00, 0x00, 0x00,
  0x09, 0x00, 0x00, 0x00, 0xff, 0xff, 0xff, 0xff, 0x92, 0xfe, 0xff, 0xff,
  0x0c, 0x00, 0x00, 0x00, 0x10, 0x00, 0x00, 0x00, 0x08, 0x00, 0x00, 0x00,
  0x01, 0x00, 0x00, 0x00, 0x1f, 0x00, 0x00, 0x00, 0x01, 0x00, 0x00, 0x00,
  0x1e, 0x00, 0x00, 0x00, 0x82, 0xfe, 0xff, 0xff, 0x14, 0x00, 0x00, 0x00,
  0x00, 0x00, 0x00, 0x0b, 0x10, 0x00, 0x00, 0x00, 0x14, 0x00, 0x00, 0x00,
  0x07, 0x00, 0x00, 0x00, 0x5c, 0xdf, 0xff, 0xff, 0x01, 0x00, 0x00, 0x00,
  0x1e, 0x00, 0x00, 0x00, 0x02, 0x00, 0x00, 0x00, 0x1d, 0x00, 0x00, 0x00,
  0x1c, 0x00, 0x00, 0x00, 0xb2, 0xfe, 0xff, 0xff, 0x14, 0x00, 0x00, 0x00,
  0x00, 0x00, 0x00, 0x08, 0x10, 0x00, 0x00, 0x00, 0x14, 0x00, 0x00, 0x00,
  0x06, 0x00, 0x00, 0x00, 0x8c, 0xdf, 0xff, 0xff, 0x01, 0x00, 0x00, 0x00,
  0x1d, 0x00, 0x00, 0x00, 0x03, 0x00, 0x00, 0x00, 0x10, 0x00, 0x00, 0x00,
  0x0a, 0x00, 0x00, 0x00, 0x01, 0x00, 0x00, 0x00, 0xe6, 0xfe, 0xff, 0xff,
  0x14, 0x00, 0x00, 0x00, 0x00, 0x00, 0x00, 0x08, 0x10, 0x00, 0x00, 0x00,
  0x14, 0x00, 0x00, 0x00, 0x06, 0x00, 0x00, 0x00, 0xc0, 0xdf, 0xff, 0xff,
  0x01, 0x00, 0x00, 0x00, 0x1c, 0x00, 0x00, 0x00, 0x03, 0x00, 0x00, 0x00,
  0x1b, 0x00, 0x00, 0x00, 0x09, 0x00, 0x00, 0x00, 0xff, 0xff, 0xff, 0xff,
  0x4a, 0xff, 0xff, 0xff, 0x0c, 0x00, 0x00, 0x00, 0x10, 0x00, 0x00, 0x00,
  0x05, 0x00, 0x00, 0x00, 0x01, 0x00, 0x00, 0x00, 0x1b, 0x00, 0x00, 0x00,
  0x02, 0x00, 0x00, 0x00, 0x1a, 0x00, 0x00, 0x00, 0x05, 0x00, 0x00, 0x00,
  0x3e, 0xff, 0xff, 0xff, 0x14, 0x00, 0x00, 0x00, 0x00, 0x00, 0x00, 0x3b,
  0x14, 0x00, 0x00, 0x00, 0x18, 0x00, 0x00, 0x00, 0x04, 0x00, 0x00, 0x00,
  0xca, 0xff, 0xff, 0xff, 0x02, 0x00, 0x00, 0x00, 0x01, 0x00, 0x00, 0x00,
  0x1a, 0x00, 0x00, 0x00, 0x02, 0x00, 0x00, 0x00, 0x0e, 0x00, 0x00, 0x00,
  0x04, 0x00, 0x00, 0x00, 0x72, 0xff, 0xff, 0xff, 0x1c, 0x00, 0x00, 0x00,
  0x00, 0x00, 0x00, 0x40, 0x1c, 0x00, 0x00, 0x00, 0x44, 0x00, 0x00, 0x00,
  0x03, 0x00, 0x00, 0x00, 0x00, 0x00, 0x06, 0x00, 0x08, 0x00, 0x04, 0x00,
  0x06, 0x00, 0x00, 0x00, 0x0a, 0x00, 0x00, 0x00, 0x0a, 0x00, 0x00, 0x00,
  0x10, 0x00, 0x00, 0x00, 0x11, 0x00, 0x00, 0x00, 0x12, 0x00, 0x00, 0x00,
  0x13, 0x00, 0x00, 0x00, 0x14, 0x00, 0x00, 0x00, 0x15, 0x00, 0x00, 0x00,
  0x16, 0x00, 0x00, 0x00, 0x17, 0x00, 0x00, 0x00, 0x18, 0x00, 0x00, 0x00,
  0x19, 0x00, 0x00, 0x00, 0x01, 0x00, 0x00, 0x00, 0x0f, 0x00, 0x00, 0x00,
  0x00, 0x00, 0x0a, 0x00, 0x10, 0x00, 0x0c, 0x00, 0x08, 0x00, 0x04, 0x00,
  0x0a, 0x00, 0x00, 0x00, 0x0c, 0x00, 0x00, 0x00, 0x10, 0x00, 0x00, 0x00,
  0x02, 0x00, 0x00, 0x00, 0x01, 0x00, 0x00, 0x00, 0x0f, 0x00, 0x00, 0x00,
  0x02, 0x00, 0x00, 0x00, 0x00, 0x00, 0x00, 0x00, 0x06, 0x00, 0x00, 0x00,
  0x00, 0x00, 0x0e, 0x00, 0x1a, 0x00, 0x14, 0x00, 0x10, 0x00, 0x0c, 0x00,
  0x0b, 0x00, 0x04, 0x00, 0x0e, 0x00, 0x00, 0x00, 0x24, 0x00, 0x00, 0x00,
  0x00, 0x00, 0x00, 0x20, 0x24, 0x00, 0x00, 0x00, 0x28, 0x00, 0x00, 0x00,
  0x01, 0x00, 0x00, 0x00, 0x00, 0x00, 0x0e, 0x00, 0x08, 0x00, 0x00, 0x00,
  0x00, 0x00, 0x00, 0x00, 0x00, 0x00, 0x04, 0x00, 0x0e, 0x00, 0x00, 0x00,
  0x01, 0x00, 0x00, 0x00, 0x01, 0x00, 0x00, 0x00, 0x0e, 0x00, 0x00, 0x00,
  0x04, 0x00, 0x00, 0x00, 0x0d, 0x00, 0x00, 0x00, 0x08, 0x00, 0x00, 0x00,
  0x07, 0x00, 0x00, 0x00, 0x07, 0x00, 0x00, 0x00, 0x00, 0x00, 0x0e, 0x00,
  0x16, 0x00, 0x00, 0x00, 0x10, 0x00, 0x0c, 0x00, 0x0b, 0x00, 0x04, 0x00,
  0x0e, 0x00, 0x00, 0x00, 0x18, 0x00, 0x00, 0x00, 0x00, 0x00, 0x00, 0x37,
  0x18, 0x00, 0x00, 0x00, 0x1c, 0x00, 0x00, 0x00, 0x00, 0x00, 0x06, 0x00,
  0x08, 0x00, 0x07, 0x00, 0x06, 0x00, 0x00, 0x00, 0x00, 0x00, 0x00, 0x02,
  0x01, 0x00, 0x00, 0x00, 0x0d, 0x00, 0x00, 0x00, 0x01, 0x00, 0x00, 0x00,
  0x00, 0x00, 0x00, 0x00, 0x01, 0x00, 0x00, 0x00, 0x45, 0x00, 0x00, 0x00,
  0x01, 0x00, 0x00, 0x00, 0x00, 0x00, 0x00, 0x00, 0x46, 0x00, 0x00, 0x00,
  0xf8, 0x1d, 0x00, 0x00, 0x74, 0x1d, 0x00, 0x00, 0x08, 0x1d, 0x00, 0x00,
  0xb0, 0x1c, 0x00, 0x00, 0x5c, 0x1c, 0x00, 0x00, 0xf8, 0x1b, 0x00, 0x00,
  0xa0, 0x1b, 0x00, 0x00, 0x44, 0x1b, 0x00, 0x00, 0xe8, 0x1a, 0x00, 0x00,
  0x88, 0x1a, 0x00, 0x00, 0x28, 0x1a, 0x00, 0x00, 0xe0, 0x19, 0x00, 0x00,
  0x94, 0x19, 0x00, 0x00, 0x48, 0x19, 0x00, 0x00, 0xf8, 0x18, 0x00, 0x00,
  0x90, 0x18, 0x00, 0x00, 0x30, 0x18, 0x00, 0x00, 0xd0, 0x17, 0x00, 0x00,
  0x70, 0x17, 0x00, 0x00, 0x10, 0x17, 0x00, 0x00, 0xb0, 0x16, 0x00, 0x00,
  0x50, 0x16, 0x00, 0x00, 0xf0, 0x15, 0x00, 0x00, 0x90, 0x15, 0x00, 0x00,
  0x30, 0x15, 0x00, 0x00, 0xd0, 0x14, 0x00, 0x00, 0x7c, 0x14, 0x00, 0x00,
  0x20, 0x14, 0x00, 0x00, 0xb0, 0x13, 0x00, 0x00, 0x14, 0x13, 0x00, 0x00,
  0xa8, 0x12, 0x00, 0x00, 0x3c, 0x12, 0x00, 0x00, 0xcc, 0x11, 0x00, 0x00,
  0x2c, 0x11, 0x00, 0x00, 0x8c, 0x10, 0x00, 0x00, 0xec, 0x0f, 0x00, 0x00,
  0x4c, 0x0f, 0x00, 0x00, 0xac, 0x0e, 0x00, 0x00, 0x0c, 0x0e, 0x00, 0x00,
  0xa0, 0x0d, 0x00, 0x00, 0x30, 0x0d, 0x00, 0x00, 0xc0, 0x0c, 0x00, 0x00,
  0x20, 0x0c, 0x00, 0x00, 0xb4, 0x0b, 0x00, 0x00, 0x44, 0x0b, 0x00, 0x00,
  0xd4, 0x0a, 0x00, 0x00, 0x34, 0x0a, 0x00, 0x00, 0xc8, 0x09, 0x00, 0x00,
  0x58, 0x09, 0x00, 0x00, 0xe8, 0x08, 0x00, 0x00, 0x48, 0x08, 0x00, 0x00,
  0xdc, 0x07, 0x00, 0x00, 0x6c, 0x07, 0x00, 0x00, 0xf8, 0x06, 0x00, 0x00,
  0x8c, 0x06, 0x00, 0x00, 0x1c, 0x06, 0x00, 0x00, 0xac, 0x05, 0x00, 0x00,
  0x40, 0x05, 0x00, 0x00, 0xd0, 0x04, 0x00, 0x00, 0x60, 0x04, 0x00, 0x00,
  0xf4, 0x03, 0x00, 0x00, 0x84, 0x03, 0x00, 0x00, 0x14, 0x03, 0x00, 0x00,
  0xa8, 0x02, 0x00, 0x00, 0x38, 0x02, 0x00, 0x00, 0xc4, 0x01, 0x00, 0x00,
  0x58, 0x01, 0x00, 0x00, 0xe8, 0x00, 0x00, 0x00, 0x60, 0x00, 0x00, 0x00,
  0x04, 0x00, 0x00, 0x00, 0x36, 0xe3, 0xff, 0xff, 0x00, 0x00, 0x00, 0x01,
  0x14, 0x00, 0x00, 0x00, 0x1c, 0x00, 0x00, 0x00, 0x1c, 0x00, 0x00, 0x00,
  0x46, 0x00, 0x00, 0x00, 0x34, 0x00, 0x00, 0x00, 0x02, 0x00, 0x00, 0x00,
  0xff, 0xff, 0xff, 0xff, 0x01, 0x00, 0x00, 0x00, 0xb4, 0xe2, 0xff, 0xff,
  0x19, 0x00, 0x00, 0x00, 0x53, 0x74, 0x61, 0x74, 0x65, 0x66, 0x75, 0x6c,
  0x50, 0x61, 0x72, 0x74, 0x69, 0x74, 0x69, 0x6f, 0x6e, 0x65, 0x64, 0x43,
  0x61, 0x6c, 0x6c, 0x3a, 0x30, 0x00, 0x00, 0x00, 0x02, 0x00, 0x00, 0x00,
  0x01, 0x00, 0x00, 0x00, 0x01, 0x00, 0x00, 0x00, 0x8e, 0xe3, 0xff, 0xff,
  0x00, 0x00, 0x00, 0x01, 0x14, 0x00, 0x00, 0x00, 0x1c, 0x00, 0x00, 0x00,
  0x1c, 0x00, 0x00, 0x00, 0x45, 0x00, 0x00, 0x00, 0x60, 0x00, 0x00, 0x00,
  0x02, 0x00, 0x00, 0x00, 0xff, 0xff, 0xff, 0xff, 0x08, 0x00, 0x00, 0x00,
  0x0c, 0xe3, 0xff, 0xff, 0x46, 0x00, 0x00, 0x00, 0x73, 0x65, 0x71, 0x75,
  0x65, 0x6e, 0x74, 0x69, 0x61, 0x6c, 0x2f, 0x64, 0x65, 0x6e, 0x73, 0x65,
  0x2f, 0x4d, 0x61, 0x74, 0x4d, 0x75, 0x6c, 0x3b, 0x73, 0x65, 0x71, 0x75,
  0x65, 0x6e, 0x74, 0x69, 0x61, 0x6c, 0x2f, 0x64, 0x65, 0x6e, 0x73, 0x65,
  0x2f, 0x52, 0x65, 0x6c, 0x75, 0x3b, 0x73, 0x65, 0x71, 0x75, 0x65, 0x6e,
  0x74, 0x69, 0x61, 0x6c, 0x2f, 0x64, 0x65, 0x6e, 0x73, 0x65, 0x2f, 0x42,
  0x69, 0x61, 0x73, 0x41, 0x64, 0x64, 0x00, 0x00, 0x02, 0x00, 0x00, 0x00,
  0x01, 0x00, 0x00, 0x00, 0x08, 0x00, 0x00, 0x00, 0x12, 0xe4, 0xff, 0xff,
  0x00, 0x00, 0x00, 0x01, 0x14, 0x00, 0x00, 0x00, 0x1c, 0x00, 0x00, 0x00,
  0x1c, 0x00, 0x00, 0x00, 0x44, 0x00, 0x00, 0x00, 0x48, 0x00, 0x00, 0x00,
  0x02, 0x00, 0x00, 0x00, 0xff, 0xff, 0xff, 0xff, 0x10, 0x00, 0x00, 0x00,
  0x90, 0xe3, 0xff, 0xff, 0x2c, 0x00, 0x00, 0x00, 0x73, 0x65, 0x71, 0x75,
  0x65, 0x6e, 0x74, 0x69, 0x61, 0x6c, 0x2f, 0x73, 0x69, 0x6d, 0x70, 0x6c,
  0x65, 0x5f, 0x72, 0x6e, 0x6e, 0x2f, 0x73, 0x69, 0x6d, 0x70, 0x6c, 0x65,
  0x5f, 0x72, 0x6e, 0x6e, 0x5f, 0x63, 0x65, 0x6c, 0x6c, 0x2f, 0x54, 0x61,
  0x6e, 0x68, 0x5f, 0x39, 0x00, 0x00, 0x00, 0x00, 0x02, 0x00, 0x00, 0x00,
  0x01, 0x00, 0x00, 0x00, 0x10, 0x00, 0x00, 0x00, 0x7e, 0xe4, 0xff, 0xff,
  0x00, 0x00, 0x00, 0x01, 0x14, 0x00, 0x00, 0x00, 0x1c, 0x00, 0x00, 0x00,
  0x1c, 0x00, 0x00, 0x00, 0x43, 0x00, 0x00, 0x00, 0x44, 0x00, 0x00, 0x00,
  0x02, 0x00, 0x00, 0x00, 0xff, 0xff, 0xff, 0xff, 0x10, 0x00, 0x00, 0x00,
  0xfc, 0xe3, 0xff, 0xff, 0x2b, 0x00, 0x00, 0x00, 0x73, 0x65, 0x71, 0x75,
  0x65, 0x6e, 0x74, 0x69, 0x61, 0x6c, 0x2f, 0x73, 0x69, 0x6d, 0x70, 0x6c,
  0x65, 0x5f, 0x72, 0x6e, 0x6e, 0x2f, 0x73, 0x69, 0x6d, 0x70, 0x6c, 0x65,
  0x5f, 0x72, 0x6e, 0x6e, 0x5f, 0x63, 0x65, 0x6c, 0x6c, 0x2f, 0x61, 0x64,
  0x64, 0x5f, 0x39, 0x00, 0x02, 0x00, 0x00, 0x00, 0x01, 0x00, 0x00, 0x00,
  0x10, 0x00, 0x00, 0x00, 0xe6, 0xe4, 0xff, 0xff, 0x00, 0x00, 0x00, 0x01,
  0x14, 0x00, 0x00, 0x00, 0x1c, 0x00, 0x00, 0x00, 0x1c, 0x00, 0x00, 0x00,
  0x42, 0x00, 0x00, 0x00, 0x4c, 0x00, 0x00, 0x00, 0x02, 0x00, 0x00, 0x00,
  0xff, 0xff, 0xff, 0xff, 0x10, 0x00, 0x00, 0x00, 0x64, 0xe4, 0xff, 0xff,
  0x30, 0x00, 0x00, 0x00, 0x73, 0x65, 0x71, 0x75, 0x65, 0x6e, 0x74, 0x69,
  0x61, 0x6c, 0x2f, 0x73, 0x69, 0x6d, 0x70, 0x6c, 0x65, 0x5f, 0x72, 0x6e,
  0x6e, 0x2f, 0x73, 0x69, 0x6d, 0x70, 0x6c, 0x65, 0x5f, 0x72, 0x6e, 0x6e,
  0x5f, 0x63, 0x65, 0x6c, 0x6c, 0x2f, 0x4d, 0x61, 0x74, 0x4d, 0x75, 0x6c,
  0x5f, 0x31, 0x39, 0x31, 0x00, 0x00, 0x00, 0x00, 0x02, 0x00, 0x00, 0x00,
  0x01, 0x00, 0x00, 0x00, 0x10, 0x00, 0x00, 0x00, 0x56, 0xe5, 0xff, 0xff,
  0x00, 0x00, 0x00, 0x01, 0x14, 0x00, 0x00, 0x00, 0x1c, 0x00, 0x00, 0x00,
  0x1c, 0x00, 0x00, 0x00, 0x41, 0x00, 0x00, 0x00, 0x48, 0x00, 0x00, 0x00,
  0x02, 0x00, 0x00, 0x00, 0xff, 0xff, 0xff, 0xff, 0x10, 0x00, 0x00, 0x00,
  0xd4, 0xe4, 0xff, 0xff, 0x2c, 0x00, 0x00, 0x00, 0x73, 0x65, 0x71, 0x75,
  0x65, 0x6e, 0x74, 0x69, 0x61, 0x6c, 0x2f, 0x73, 0x69, 0x6d, 0x70, 0x6c,
  0x65, 0x5f, 0x72, 0x6e, 0x6e, 0x2f, 0x73, 0x69, 0x6d, 0x70, 0x6c, 0x65,
  0x5f, 0x72, 0x6e, 0x6e, 0x5f, 0x63, 0x65, 0x6c, 0x6c, 0x2f, 0x54, 0x61,
  0x6e, 0x68, 0x5f, 0x38, 0x00, 0x00, 0x00, 0x00, 0x02, 0x00, 0x00, 0x00,
  0x01, 0x00, 0x00, 0x00, 0x10, 0x00, 0x00, 0x00, 0xc2, 0xe5, 0xff, 0xff,
  0x00, 0x00, 0x00, 0x01, 0x14, 0x00, 0x00, 0x00, 0x1c, 0x00, 0x00, 0x00,
  0x1c, 0x00, 0x00, 0x00, 0x40, 0x00, 0x00, 0x00, 0x44, 0x00, 0x00, 0x00,
  0x02, 0x00, 0x00, 0x00, 0xff, 0xff, 0xff, 0xff, 0x10, 0x00, 0x00, 0x00,
  0x40, 0xe5, 0xff, 0xff, 0x2b, 0x00, 0x00, 0x00, 0x73, 0x65, 0x71, 0x75,
  0x65, 0x6e, 0x74, 0x69, 0x61, 0x6c, 0x2f, 0x73, 0x69, 0x6d, 0x70, 0x6c,
  0x65, 0x5f, 0x72, 0x6e, 0x6e, 0x2f, 0x73, 0x69, 0x6d, 0x70, 0x6c, 0x65,
  0x5f, 0x72, 0x6e, 0x6e, 0x5f, 0x63, 0x65, 0x6c, 0x6c, 0x2f, 0x61, 0x64,
  0x64, 0x5f, 0x38, 0x00, 0x02, 0x00, 0x00, 0x00, 0x01, 0x00, 0x00, 0x00,
  0x10, 0x00, 0x00, 0x00, 0x2a, 0xe6, 0xff, 0xff, 0x00, 0x00, 0x00, 0x01,
  0x14, 0x00, 0x00, 0x00, 0x1c, 0x00, 0x00, 0x00, 0x1c, 0x00, 0x00, 0x00,
  0x3f, 0x00, 0x00, 0x00, 0x48, 0x00, 0x00, 0x00, 0x02, 0x00, 0x00, 0x00,
  0xff, 0xff, 0xff, 0xff, 0x10, 0x00, 0x00, 0x00, 0xa8, 0xe5, 0xff, 0xff,
  0x2f, 0x00, 0x00, 0x00, 0x73, 0x65, 0x71, 0x75, 0x65, 0x6e, 0x74, 0x69,
  0x61, 0x6c, 0x2f, 0x73, 0x69, 0x6d, 0x70, 0x6c, 0x65, 0x5f, 0x72, 0x6e,
  0x6e, 0x2f, 0x73, 0x69, 0x6d, 0x70, 0x6c, 0x65, 0x5f, 0x72, 0x6e, 0x6e,
  0x5f, 0x63, 0x65, 0x6c, 0x6c, 0x2f, 0x4d, 0x61, 0x74, 0x4d, 0x75, 0x6c,
  0x5f, 0x31, 0x37, 0x00, 0x02, 0x00, 0x00, 0x00, 0x01, 0x00, 0x00, 0x00,
  0x10, 0x00, 0x00, 0x00, 0x96, 0xe6, 0xff, 0xff, 0x00, 0x00, 0x00, 0x01,
  0x14, 0x00, 0x00, 0x00, 0x1c, 0x00, 0x00, 0x00, 0x1c, 0x00, 0x00, 0x00,
  0x3e, 0x00, 0x00, 0x00, 0x48, 0x00, 0x00, 0x00, 0x02, 0x00, 0x00, 0x00,
  0xff, 0xff, 0xff, 0xff, 0x10, 0x00, 0x00, 0x00, 0x14, 0xe6, 0xff, 0xff,
  0x2c, 0x00, 0x00, 0x00, 0x73, 0x65, 0x71, 0x75, 0x65, 0x6e, 0x74, 0x69,
  0x61, 0x6c, 0x2f, 0x73, 0x69, 0x6d, 0x70, 0x6c, 0x65, 0x5f, 0x72, 0x6e,
  0x6e, 0x2f, 0x73, 0x69, 0x6d, 0x70, 0x6c, 0x65, 0x5f, 0x72, 0x6e, 0x6e,
  0x5f, 0x63, 0x65, 0x6c, 0x6c, 0x2f, 0x54, 0x61, 0x6e, 0x68, 0x5f, 0x37,
  0x00, 0x00, 0x00, 0x00, 0x02, 0x00, 0x00, 0x00, 0x01, 0x00, 0x00, 0x00,
  0x10, 0x00, 0x00, 0x00, 0x02, 0xe7, 0xff, 0xff, 0x00, 0x00, 0x00, 0x01,
  0x14, 0x00, 0x00, 0x00, 0x1c, 0x00, 0x00, 0x00, 0x1c, 0x00, 0x00, 0x00,
  0x3d, 0x00, 0x00, 0x00, 0x44, 0x00, 0x00, 0x00, 0x02, 0x00, 0x00, 0x00,
  0xff, 0xff, 0xff, 0xff, 0x10, 0x00, 0x00, 0x00, 0x80, 0xe6, 0xff, 0xff,
  0x2b, 0x00, 0x00, 0x00, 0x73, 0x65, 0x71, 0x75, 0x65, 0x6e, 0x74, 0x69,
  0x61, 0x6c, 0x2f, 0x73, 0x69, 0x6d, 0x70, 0x6c, 0x65, 0x5f, 0x72, 0x6e,
  0x6e, 0x2f, 0x73, 0x69, 0x6d, 0x70, 0x6c, 0x65, 0x5f, 0x72, 0x6e, 0x6e,
  0x5f, 0x63, 0x65, 0x6c, 0x6c, 0x2f, 0x61, 0x64, 0x64, 0x5f, 0x37, 0x00,
  0x02, 0x00, 0x00, 0x00, 0x01, 0x00, 0x00, 0x00, 0x10, 0x00, 0x00, 0x00,
  0x6a, 0xe7, 0xff, 0xff, 0x00, 0x00, 0x00, 0x01, 0x14, 0x00, 0x00, 0x00,
  0x1c, 0x00, 0x00, 0x00, 0x1c, 0x00, 0x00, 0x00, 0x3c, 0x00, 0x00, 0x00,
  0x48, 0x00, 0x00, 0x00, 0x02, 0x00, 0x00, 0x00, 0xff, 0xff, 0xff, 0xff,
  0x10, 0x00, 0x00, 0x00, 0xe8, 0xe6, 0xff, 0xff, 0x2f, 0x00, 0x00, 0x00,
  0x73, 0x65, 0x71, 0x75, 0x65, 0x6e, 0x74, 0x69, 0x61, 0x6c, 0x2f, 0x73,
  0x69, 0x6d, 0x70, 0x6c, 0x65, 0x5f, 0x72, 0x6e, 0x6e, 0x2f, 0x73, 0x69,
  0x6d, 0x70, 0x6c, 0x65, 0x5f, 0x72, 0x6e, 0x6e, 0x5f, 0x63, 0x65, 0x6c,
  0x6c, 0x2f, 0x4d, 0x61, 0x74, 0x4d, 0x75, 0x6c, 0x5f, 0x31, 0x35, 0x00,
  0x02, 0x00, 0x00, 0x00, 0x01, 0x00, 0x00, 0x00, 0x10, 0x00, 0x00, 0x00,
  0xd6, 0xe7, 0xff, 0xff, 0x00, 0x00, 0x00, 0x01, 0x14, 0x00, 0x00, 0x00,
  0x1c, 0x00, 0x00, 0x00, 0x1c, 0x00, 0x00, 0x00, 0x3b, 0x00, 0x00, 0x00,
  0x48, 0x00, 0x00, 0x00, 0x02, 0x00, 0x00, 0x00, 0xff, 0xff, 0xff, 0xff,
  0x10, 0x00, 0x00, 0x00, 0x54, 0xe7, 0xff, 0xff, 0x2c, 0x00, 0x00, 0x00,
  0x73, 0x65, 0x71, 0x75, 0x65, 0x6e, 0x74, 0x69, 0x61, 0x6c, 0x2f, 0x73,
  0x69, 0x6d, 0x70, 0x6c, 0x65, 0x5f, 0x72, 0x6e, 0x6e, 0x2f, 0x73, 0x69,
  0x6d, 0x70, 0x6c, 0x65, 0x5f, 0x72, 0x6e, 0x6e, 0x5f, 0x63, 0x65, 0x6c,
  0x6c, 0x2f, 0x54, 0x61, 0x6e, 0x68, 0x5f, 0x36, 0x00, 0x00, 0x00, 0x00,
  0x02, 0x00, 0x00, 0x00, 0x01, 0x00, 0x00, 0x00, 0x10, 0x00, 0x00, 0x00,
  0x42, 0xe8, 0xff, 0xff, 0x00, 0x00, 0x00, 0x01, 0x14, 0x00, 0x00, 0x00,
  0x1c, 0x00, 0x00, 0x00, 0x1c, 0x00, 0x00, 0x00, 0x3a, 0x00, 0x00, 0x00,
  0x44, 0x00, 0x00, 0x00, 0x02, 0x00, 0x00, 0x00, 0xff, 0xff, 0xff, 0xff,
  0x10, 0x00, 0x00, 0x00, 0xc0, 0xe7, 0xff, 0xff, 0x2b, 0x00, 0x00, 0x00,
  0x73, 0x65, 0x71, 0x75, 0x65, 0x6e, 0x74, 0x69, 0x61, 0x6c, 0x2f, 0x73,
  0x69, 0x6d, 0x70, 0x6c, 0x65, 0x5f, 0x72, 0x6e, 0x6e, 0x2f, 0x73, 0x69,
  0x6d, 0x70, 0x6c, 0x65, 0x5f, 0x72, 0x6e, 0x6e, 0x5f, 0x63, 0x65, 0x6c,
  0x6c, 0x2f, 0x61, 0x64, 0x64, 0x5f, 0x36, 0x00, 0x02, 0x00, 0x00, 0x00,
  0x01, 0x00, 0x00, 0x00, 0x10, 0x00, 0x00, 0x00, 0xaa, 0xe8, 0xff, 0xff,
  0x00, 0x00, 0x00, 0x01, 0x14, 0x00, 0x00, 0x00, 0x1c, 0x00, 0x00, 0x00,
  0x1c, 0x00, 0x00, 0x00, 0x39, 0x00, 0x00, 0x00, 0x48, 0x00, 0x00, 0x00,
  0x02, 0x00, 0x00, 0x00, 0xff, 0xff, 0xff, 0xff, 0x10, 0x00, 0x00, 0x00,
  0x28, 0xe8, 0xff, 0xff, 0x2f, 0x00, 0x00, 0x00, 0x73, 0x65, 0x71, 0x75,
  0x65, 0x6e, 0x74, 0x69, 0x61, 0x6c, 0x2f, 0x73, 0x69, 0x6d, 0x70, 0x6c,
  0x65, 0x5f, 0x72, 0x6e, 0x6e, 0x2f, 0x73, 0x69, 0x6d, 0x70, 0x6c, 0x65,
  0x5f, 0x72, 0x6e, 0x6e, 0x5f, 0x63, 0x65, 0x6c, 0x6c, 0x2f, 0x4d, 0x61,
  0x74, 0x4d, 0x75, 0x6c, 0x5f, 0x31, 0x33, 0x00, 0x02, 0x00, 0x00, 0x00,
  0x01, 0x00, 0x00, 0x00, 0x10, 0x00, 0x00, 0x00, 0x16, 0xe9, 0xff, 0xff,
  0x00, 0x00, 0x00, 0x01, 0x14, 0x00, 0x00, 0x00, 0x1c, 0x00, 0x00, 0x00,
  0x1c, 0x00, 0x00, 0x00, 0x38, 0x00, 0x00, 0x00, 0x48, 0x00, 0x00, 0x00,
  0x02, 0x00, 0x00, 0x00, 0xff, 0xff, 0xff, 0xff, 0x10, 0x00, 0x00, 0x00,
  0x94, 0xe8, 0xff, 0xff, 0x2c, 0x00, 0x00, 0x00, 0x73, 0x65, 0x71, 0x75,
  0x65, 0x6e, 0x74, 0x69, 0x61, 0x6c, 0x2f, 0x73, 0x69, 0x6d, 0x70, 0x6c,
  0x65, 0x5f, 0x72, 0x6e, 0x6e, 0x2f, 0x73, 0x69, 0x6d, 0x70, 0x6c, 0x65,
  0x5f, 0x72, 0x6e, 0x6e, 0x5f, 0x63, 0x65, 0x6c, 0x6c, 0x2f, 0x54, 0x61,
  0x6e, 0x68, 0x5f, 0x35, 0x00, 0x00, 0x00, 0x00, 0x02, 0x00, 0x00, 0x00,
  0x01, 0x00, 0x00, 0x00, 0x10, 0x00, 0x00, 0x00, 0x82, 0xe9, 0xff, 0xff,
  0x00, 0x00, 0x00, 0x01, 0x14, 0x00, 0x00, 0x00, 0x1c, 0x00, 0x00, 0x00,
  0x1c, 0x00, 0x00, 0x00, 0x37, 0x00, 0x00, 0x00, 0x44, 0x00, 0x00, 0x00,
  0x02, 0x00, 0x00, 0x00, 0xff, 0xff, 0xff, 0xff, 0x10, 0x00, 0x00, 0x00,
  0x00, 0xe9, 0xff, 0xff, 0x2b, 0x00, 0x00, 0x00, 0x73, 0x65, 0x71, 0x75,
  0x65, 0x6e, 0x74, 0x69, 0x61, 0x6c, 0x2f, 0x73, 0x69, 0x6d, 0x70, 0x6c,
  0x65, 0x5f, 0x72, 0x6e, 0x6e, 0x2f, 0x73, 0x69, 0x6d, 0x70, 0x6c, 0x65,
  0x5f, 0x72, 0x6e, 0x6e, 0x5f, 0x63, 0x65, 0x6c, 0x6c, 0x2f, 0x61, 0x64,
  0x64, 0x5f, 0x35, 0x00, 0x02, 0x00, 0x00, 0x00, 0x01, 0x00, 0x00, 0x00,
  0x10, 0x00, 0x00, 0x00, 0xea, 0xe9, 0xff, 0xff, 0x00, 0x00, 0x00, 0x01,
  0x14, 0x00, 0x00, 0x00, 0x1c, 0x00, 0x00, 0x00, 0x1c, 0x00, 0x00, 0x00,
  0x36, 0x00, 0x00, 0x00, 0x4c, 0x00, 0x00, 0x00, 0x02, 0x00, 0x00, 0x00,
  0xff, 0xff, 0xff, 0xff, 0x10, 0x00, 0x00, 0x00, 0x68, 0xe9, 0xff, 0xff,
  0x30, 0x00, 0x00, 0x00, 0x73, 0x65, 0x71, 0x75, 0x65, 0x6e, 0x74, 0x69,
  0x61, 0x6c, 0x2f, 0x73, 0x69, 0x6d, 0x70, 0x6c, 0x65, 0x5f, 0x72, 0x6e,
  0x6e, 0x2f, 0x73, 0x69, 0x6d, 0x70, 0x6c, 0x65, 0x5f, 0x72, 0x6e, 0x6e,
  0x5f, 0x63, 0x65, 0x6c, 0x6c, 0x2f, 0x4d, 0x61, 0x74, 0x4d, 0x75, 0x6c,
  0x5f, 0x31, 0x31, 0x31, 0x00, 0x00, 0x00, 0x00, 0x02, 0x00, 0x00, 0x00,
  0x01, 0x00, 0x00, 0x00, 0x10, 0x00, 0x00, 0x00, 0x5a, 0xea, 0xff, 0xff,
  0x00, 0x00, 0x00, 0x01, 0x14, 0x00, 0x00, 0x00, 0x1c, 0x00, 0x00, 0x00,
  0x1c, 0x00, 0x00, 0x00, 0x35, 0x00, 0x00, 0x00, 0x48, 0x00, 0x00, 0x00,
  0x02, 0x00, 0x00, 0x00, 0xff, 0xff, 0xff, 0xff, 0x10, 0x00, 0x00, 0x00,
  0xd8, 0xe9, 0xff, 0xff, 0x2c, 0x00, 0x00, 0x00, 0x73, 0x65, 0x71, 0x75,
  0x65, 0x6e, 0x74, 0x69, 0x61, 0x6c, 0x2f, 0x73, 0x69, 0x6d, 0x70, 0x6c,
  0x65, 0x5f, 0x72, 0x6e, 0x6e, 0x2f, 0x73, 0x69, 0x6d, 0x70, 0x6c, 0x65,
  0x5f, 0x72, 0x6e, 0x6e, 0x5f, 0x63, 0x65, 0x6c, 0x6c, 0x2f, 0x54, 0x61,
  0x6e, 0x68, 0x5f, 0x34, 0x00, 0x00, 0x00, 0x00, 0x02, 0x00, 0x00, 0x00,
  0x01, 0x00, 0x00, 0x00, 0x10, 0x00, 0x00, 0x00, 0xc6, 0xea, 0xff, 0xff,
  0x00, 0x00, 0x00, 0x01, 0x14, 0x00, 0x00, 0x00, 0x1c, 0x00, 0x00, 0x00,
  0x1c, 0x00, 0x00, 0x00, 0x34, 0x00, 0x00, 0x00, 0x44, 0x00, 0x00, 0x00,
  0x02, 0x00, 0x00, 0x00, 0xff, 0xff, 0xff, 0xff, 0x10, 0x00, 0x00, 0x00,
  0x44, 0xea, 0xff, 0xff, 0x2b, 0x00, 0x00, 0x00, 0x73, 0x65, 0x71, 0x75,
  0x65, 0x6e, 0x74, 0x69, 0x61, 0x6c, 0x2f, 0x73, 0x69, 0x6d, 0x70, 0x6c,
  0x65, 0x5f, 0x72, 0x6e, 0x6e, 0x2f, 0x73, 0x69, 0x6d, 0x70, 0x6c, 0x65,
  0x5f, 0x72, 0x6e, 0x6e, 0x5f, 0x63, 0x65, 0x6c, 0x6c, 0x2f, 0x61, 0x64,
  0x64, 0x5f, 0x34, 0x00, 0x02, 0x00, 0x00, 0x00, 0x01, 0x00, 0x00, 0x00,
  0x10, 0x00, 0x00, 0x00, 0x2e, 0xeb, 0xff, 0xff, 0x00, 0x00, 0x00, 0x01,
  0x14, 0x00, 0x00, 0x00, 0x1c, 0x00, 0x00, 0x00, 0x1c, 0x00, 0x00, 0x00,
  0x33, 0x00, 0x00, 0x00, 0x78, 0x00, 0x00, 0x00, 0x02, 0x00, 0x00, 0x00,
  0xff, 0xff, 0xff, 0xff, 0x10, 0x00, 0x00, 0x00, 0xac, 0xea, 0xff, 0xff,
  0x5e, 0x00, 0x00, 0x00, 0x73, 0x65, 0x71, 0x75, 0x65, 0x6e, 0x74, 0x69,
  0x61, 0x6c, 0x2f, 0x73, 0x69, 0x6d, 0x70, 0x6c, 0x65, 0x5f, 0x72, 0x6e,
  0x6e, 0x2f, 0x73, 0x69, 0x6d, 0x70, 0x6c, 0x65, 0x5f, 0x72, 0x6e, 0x6e,
  0x5f, 0x63, 0x65, 0x6c, 0x6c, 0x2f, 0x4d, 0x61, 0x74, 0x4d, 0x75, 0x6c,
  0x5f, 0x38, 0x3b, 0x73, 0x65, 0x71, 0x75, 0x65, 0x6e, 0x74, 0x69, 0x61,
  0x6c, 0x2f, 0x73, 0x69, 0x6d, 0x70, 0x6c, 0x65, 0x5f, 0x72, 0x6e, 0x6e,
  0x2f, 0x73, 0x69, 0x6d, 0x70, 0x6c, 0x65, 0x5f, 0x72, 0x6e, 0x6e, 0x5f,
  0x63, 0x65, 0x6c, 0x6c, 0x2f, 0x42, 0x69, 0x61, 0x73, 0x41, 0x64, 0x64,
  0x5f, 0x34, 0x00, 0x00, 0x02, 0x00, 0x00, 0x00, 0x01, 0x00, 0x00, 0x00,
  0x10, 0x00, 0x00, 0x00, 0xca, 0xeb, 0xff, 0xff, 0x00, 0x00, 0x00, 0x01,
  0x14, 0x00, 0x00, 0x00, 0x1c, 0x00, 0x00, 0x00, 0x1c, 0x00, 0x00, 0x00,
  0x32, 0x00, 0x00, 0x00, 0x48, 0x00, 0x00, 0x00, 0x02, 0x00, 0x00, 0x00,
  0xff, 0xff, 0xff, 0xff, 0x10, 0x00, 0x00, 0x00, 0x48, 0xeb, 0xff, 0xff,
  0x2e, 0x00, 0x00, 0x00, 0x73, 0x65, 0x71, 0x75, 0x65, 0x6e, 0x74, 0x69,
  0x61, 0x6c, 0x2f, 0x73, 0x69, 0x6d, 0x70, 0x6c, 0x65, 0x5f, 0x72, 0x6e,
  0x6e, 0x2f, 0x73, 0x69, 0x6d, 0x70, 0x6c, 0x65, 0x5f, 0x72, 0x6e, 0x6e,
  0x5f, 0x63, 0x65, 0x6c, 0x6c, 0x2f, 0x4d, 0x61, 0x74, 0x4d, 0x75, 0x6c,
  0x5f, 0x39, 0x00, 0x00, 0x02, 0x00, 0x00, 0x00, 0x01, 0x00, 0x00, 0x00,
  0x10, 0x00, 0x00, 0x00, 0x36, 0xec, 0xff, 0xff, 0x00, 0x00, 0x00, 0x01,
  0x14, 0x00, 0x00, 0x00, 0x1c, 0x00, 0x00, 0x00, 0x1c, 0x00, 0x00, 0x00,
  0x31, 0x00, 0x00, 0x00, 0x48, 0x00, 0x00, 0x00, 0x02, 0x00, 0x00, 0x00,
  0xff, 0xff, 0xff, 0xff, 0x10, 0x00, 0x00, 0x00, 0xb4, 0xeb, 0xff, 0xff,
  0x2c, 0x00, 0x00, 0x00, 0x73, 0x65, 0x71, 0x75, 0x65, 0x6e, 0x74, 0x69,
  0x61, 0x6c, 0x2f, 0x73, 0x69, 0x6d, 0x70, 0x6c, 0x65, 0x5f, 0x72, 0x6e,
  0x6e, 0x2f, 0x73, 0x69, 0x6d, 0x70, 0x6c, 0x65, 0x5f, 0x72, 0x6e, 0x6e,
  0x5f, 0x63, 0x65, 0x6c, 0x6c, 0x2f, 0x54, 0x61, 0x6e, 0x68, 0x5f, 0x33,
  0x00, 0x00, 0x00, 0x00, 0x02, 0x00, 0x00, 0x00, 0x01, 0x00, 0x00, 0x00,
  0x10, 0x00, 0x00, 0x00, 0xa2, 0xec, 0xff, 0xff, 0x00, 0x00, 0x00, 0x01,
  0x14, 0x00, 0x00, 0x00, 0x1c, 0x00, 0x00, 0x00, 0x1c, 0x00, 0x00, 0x00,
  0x30, 0x00, 0x00, 0x00, 0x44, 0x00, 0x00, 0x00, 0x02, 0x00, 0x00, 0x00,
  0xff, 0xff, 0xff, 0xff, 0x10, 0x00, 0x00, 0x00, 0x20, 0xec, 0xff, 0xff,
  0x2b, 0x00, 0x00, 0x00, 0x73, 0x65, 0x71, 0x75, 0x65, 0x6e, 0x74, 0x69,
  0x61, 0x6c, 0x2f, 0x73, 0x69, 0x6d, 0x70, 0x6c, 0x65, 0x5f, 0x72, 0x6e,
  0x6e, 0x2f, 0x73, 0x69, 0x6d, 0x70, 0x6c, 0x65, 0x5f, 0x72, 0x6e, 0x6e,
  0x5f, 0x63, 0x65, 0x6c, 0x6c, 0x2f, 0x61, 0x64, 0x64, 0x5f, 0x33, 0x00,
  0x02, 0x00, 0x00, 0x00, 0x01, 0x00, 0x00, 0x00, 0x10, 0x00, 0x00, 0x00,
  0x0a, 0xed, 0xff, 0xff, 0x00, 0x00, 0x00, 0x01, 0x14, 0x00, 0x00, 0x00,
  0x1c, 0x00, 0x00, 0x00, 0x1c, 0x00, 0x00, 0x00, 0x2f, 0x00, 0x00, 0x00,
  0x78, 0x00, 0x00, 0x00, 0x02, 0x00, 0x00, 0x00, 0xff, 0xff, 0xff, 0xff,
  0x10, 0x00, 0x00, 0x00, 0x88, 0xec, 0xff, 0xff, 0x5e, 0x00, 0x00, 0x00,
  0x73, 0x65, 0x71, 0x75, 0x65, 0x6e, 0x74, 0x69, 0x61, 0x6c, 0x2f, 0x73,
  0x69, 0x6d, 0x70, 0x6c, 0x65, 0x5f, 0x72, 0x6e, 0x6e, 0x2f, 0x73, 0x69,
  0x6d, 0x70, 0x6c, 0x65, 0x5f, 0x72, 0x6e, 0x6e, 0x5f, 0x63, 0x65, 0x6c,
  0x6c, 0x2f, 0x4d, 0x61, 0x74, 0x4d, 0x75, 0x6c, 0x5f, 0x36, 0x3b, 0x73,
  0x65, 0x71, 0x75, 0x65, 0x6e, 0x74, 0x69, 0x61, 0x6c, 0x2f, 0x73, 0x69,
  0x6d, 0x70, 0x6c, 0x65, 0x5f, 0x72, 0x6e, 0x6e, 0x2f, 0x73, 0x69, 0x6d,
  0x70, 0x6c, 0x65, 0x5f, 0x72, 0x6e, 0x6e, 0x5f, 0x63, 0x65, 0x6c, 0x6c,
  0x2f, 0x42, 0x69, 0x61, 0x73, 0x41, 0x64, 0x64, 0x5f, 0x33, 0x00, 0x00,
  0x02, 0x00, 0x00, 0x00, 0x01, 0x00, 0x00, 0x00, 0x10, 0x00, 0x00, 0x00,
  0xa6, 0xed, 0xff, 0xff, 0x00, 0x00, 0x00, 0x01, 0x14, 0x00, 0x00, 0x00,
  0x1c, 0x00, 0x00, 0x00, 0x1c, 0x00, 0x00, 0x00, 0x2e, 0x00, 0x00, 0x00,
  0x48, 0x00, 0x00, 0x00, 0x02, 0x00, 0x00, 0x00, 0xff, 0xff, 0xff, 0xff,
  0x10, 0x00, 0x00, 0x00, 0x24, 0xed, 0xff, 0xff, 0x2e, 0x00, 0x00, 0x00,
  0x73, 0x65, 0x71, 0x75, 0x65, 0x6e, 0x74, 0x69, 0x61, 0x6c, 0x2f, 0x73,
  0x69, 0x6d, 0x70, 0x6c, 0x65, 0x5f, 0x72, 0x6e, 0x6e, 0x2f, 0x73, 0x69,
  0x6d, 0x70, 0x6c, 0x65, 0x5f, 0x72, 0x6e, 0x6e, 0x5f, 0x63, 0x65, 0x6c,
  0x6c, 0x2f, 0x4d, 0x61, 0x74, 0x4d, 0x75, 0x6c, 0x5f, 0x37, 0x00, 0x00,
  0x02, 0x00, 0x00, 0x00, 0x01, 0x00, 0x00, 0x00, 0x10, 0x00, 0x00, 0x00,
  0x12, 0xee, 0xff, 0xff, 0x00, 0x00, 0x00, 0x01, 0x14, 0x00, 0x00, 0x00,
  0x1c, 0x00, 0x00, 0x00, 0x1c, 0x00, 0x00, 0x00, 0x2d, 0x00, 0x00, 0x00,
  0x48, 0x00, 0x00, 0x00, 0x02, 0x00, 0x00, 0x00, 0xff, 0xff, 0xff, 0xff,
  0x10, 0x00, 0x00, 0x00, 0x90, 0xed, 0xff, 0xff, 0x2c, 0x00, 0x00, 0x00,
  0x73, 0x65, 0x71, 0x75, 0x65, 0x6e, 0x74, 0x69, 0x61, 0x6c, 0x2f, 0x73,
  0x69, 0x6d, 0x70, 0x6c, 0x65, 0x5f, 0x72, 0x6e, 0x6e, 0x2f, 0x73, 0x69,
  0x6d, 0x70, 0x6c, 0x65, 0x5f, 0x72, 0x6e, 0x6e, 0x5f, 0x63, 0x65, 0x6c,
  0x6c, 0x2f, 0x54, 0x61, 0x6e, 0x68, 0x5f, 0x32, 0x00, 0x00, 0x00, 0x00,
  0x02, 0x00, 0x00, 0x00, 0x01, 0x00, 0x00, 0x00, 0x10, 0x00, 0x00, 0x00,
  0x7e, 0xee, 0xff, 0xff, 0x00, 0x00, 0x00, 0x01, 0x14, 0x00, 0x00, 0x00,
  0x1c, 0x00, 0x00, 0x00, 0x1c, 0x00, 0x00, 0x00, 0x2c, 0x00, 0x00, 0x00,
  0x44, 0x00, 0x00, 0x00, 0x02, 0x00, 0x00, 0x00, 0xff, 0xff, 0xff, 0xff,
  0x10, 0x00, 0x00, 0x00, 0xfc, 0xed, 0xff, 0xff, 0x2b, 0x00, 0x00, 0x00,
  0x73, 0x65, 0x71, 0x75, 0x65, 0x6e, 0x74, 0x69, 0x61, 0x6c, 0x2f, 0x73,
  0x69, 0x6d, 0x70, 0x6c, 0x65, 0x5f, 0x72, 0x6e, 0x6e, 0x2f, 0x73, 0x69,
  0x6d, 0x70, 0x6c, 0x65, 0x5f, 0x72, 0x6e, 0x6e, 0x5f, 0x63, 0x65, 0x6c,
  0x6c, 0x2f, 0x61, 0x64, 0x64, 0x5f, 0x32, 0x00, 0x02, 0x00, 0x00, 0x00,
  0x01, 0x00, 0x00, 0x00, 0x10, 0x00, 0x00, 0x00, 0xe6, 0xee, 0xff, 0xff,
  0x00, 0x00, 0x00, 0x01, 0x14, 0x00, 0x00, 0x00, 0x1c, 0x00, 0x00, 0x00,
  0x1c, 0x00, 0x00, 0x00, 0x2b, 0x00, 0x00, 0x00, 0x78, 0x00, 0x00, 0x00,
  0x02, 0x00, 0x00, 0x00, 0xff, 0xff, 0xff, 0xff, 0x10, 0x00, 0x00, 0x00,
  0x64, 0xee, 0xff, 0xff, 0x5e, 0x00, 0x00, 0x00, 0x73, 0x65, 0x71, 0x75,
  0x65, 0x6e, 0x74, 0x69, 0x61, 0x6c, 0x2f, 0x73, 0x69, 0x6d, 0x70, 0x6c,
  0x65, 0x5f, 0x72, 0x6e, 0x6e, 0x2f, 0x73, 0x69, 0x6d, 0x70, 0x6c, 0x65,
  0x5f, 0x72, 0x6e, 0x6e, 0x5f, 0x63, 0x65, 0x6c, 0x6c, 0x2f, 0x4d, 0x61,
  0x74, 0x4d, 0x75, 0x6c, 0x5f, 0x34, 0x3b, 0x73, 0x65, 0x71, 0x75, 0x65,
  0x6e, 0x74, 0x69, 0x61, 0x6c, 0x2f, 0x73, 0x69, 0x6d, 0x70, 0x6c, 0x65,
  0x5f, 0x72, 0x6e, 0x6e, 0x2f, 0x73, 0x69, 0x6d, 0x70, 0x6c, 0x65, 0x5f,
  0x72, 0x6e, 0x6e, 0x5f, 0x63, 0x65, 0x6c, 0x6c, 0x2f, 0x42, 0x69, 0x61,
  0x73, 0x41, 0x64, 0x64, 0x5f, 0x32, 0x00, 0x00, 0x02, 0x00, 0x00, 0x00,
  0x01, 0x00, 0x00, 0x00, 0x10, 0x00, 0x00, 0x00, 0x82, 0xef, 0xff, 0xff,
  0x00, 0x00, 0x00, 0x01, 0x14, 0x00, 0x00, 0x00, 0x1c, 0x00, 0x00, 0x00,
  0x1c, 0x00, 0x00, 0x00, 0x2a, 0x00, 0x00, 0x00, 0x48, 0x00, 0x00, 0x00,
  0x02, 0x00, 0x00, 0x00, 0xff, 0xff, 0xff, 0xff, 0x10, 0x00, 0x00, 0x00,
  0x00, 0xef, 0xff, 0xff, 0x2e, 0x00, 0x00, 0x00, 0x73, 0x65, 0x71, 0x75,
  0x65, 0x6e, 0x74, 0x69, 0x61, 0x6c, 0x2f, 0x73, 0x69, 0x6d, 0x70, 0x6c,
  0x65, 0x5f, 0x72, 0x6e, 0x6e, 0x2f, 0x73, 0x69, 0x6d, 0x70, 0x6c, 0x65,
  0x5f, 0x72, 0x6e, 0x6e, 0x5f, 0x63, 0x65, 0x6c, 0x6c, 0x2f, 0x4d, 0x61,
  0x74, 0x4d, 0x75, 0x6c, 0x5f, 0x35, 0x00, 0x00, 0x02, 0x00, 0x00, 0x00,
  0x01, 0x00, 0x00, 0x00, 0x10, 0x00, 0x00, 0x00, 0xee, 0xef, 0xff, 0xff,
  0x00, 0x00, 0x00, 0x01, 0x14, 0x00, 0x00, 0x00, 0x1c, 0x00, 0x00, 0x00,
  0x1c, 0x00, 0x00, 0x00, 0x29, 0x00, 0x00, 0x00, 0x48, 0x00, 0x00, 0x00,
  0x02, 0x00, 0x00, 0x00, 0xff, 0xff, 0xff, 0xff, 0x10, 0x00, 0x00, 0x00,
  0x6c, 0xef, 0xff, 0xff, 0x2c, 0x00, 0x00, 0x00, 0x73, 0x65, 0x71, 0x75,
  0x65, 0x6e, 0x74, 0x69, 0x61, 0x6c, 0x2f, 0x73, 0x69, 0x6d, 0x70, 0x6c,
  0x65, 0x5f, 0x72, 0x6e, 0x6e, 0x2f, 0x73, 0x69, 0x6d, 0x70, 0x6c, 0x65,
  0x5f, 0x72, 0x6e, 0x6e, 0x5f, 0x63, 0x65, 0x6c, 0x6c, 0x2f, 0x54, 0x61,
  0x6e, 0x68, 0x5f, 0x31, 0x00, 0x00, 0x00, 0x00, 0x02, 0x00, 0x00, 0x00,
  0x01, 0x00, 0x00, 0x00, 0x10, 0x00, 0x00, 0x00, 0x5a, 0xf0, 0xff, 0xff,
  0x00, 0x00, 0x00, 0x01, 0x14, 0x00, 0x00, 0x00, 0x1c, 0x00, 0x00, 0x00,
  0x1c, 0x00, 0x00, 0x00, 0x28, 0x00, 0x00, 0x00, 0x44, 0x00, 0x00, 0x00,
  0x02, 0x00, 0x00, 0x00, 0xff, 0xff, 0xff, 0xff, 0x10, 0x00, 0x00, 0x00,
  0xd8, 0xef, 0xff, 0xff, 0x2b, 0x00, 0x00, 0x00, 0x73, 0x65, 0x71, 0x75,
  0x65, 0x6e, 0x74, 0x69, 0x61, 0x6c, 0x2f, 0x73, 0x69, 0x6d, 0x70, 0x6c,
  0x65, 0x5f, 0x72, 0x6e, 0x6e, 0x2f, 0x73, 0x69, 0x6d, 0x70, 0x6c, 0x65,
  0x5f, 0x72, 0x6e, 0x6e, 0x5f, 0x63, 0x65, 0x6c, 0x6c, 0x2f, 0x61, 0x64,
  0x64, 0x5f, 0x31, 0x00, 0x02, 0x00, 0x00, 0x00, 0x01, 0x00, 0x00, 0x00,
  0x10, 0x00, 0x00, 0x00, 0xc2, 0xf0, 0xff, 0xff, 0x00, 0x00, 0x00, 0x01,
  0x14, 0x00, 0x00, 0x00, 0x1c, 0x00, 0x00, 0x00, 0x1c, 0x00, 0x00, 0x00,
  0x27, 0x00, 0x00, 0x00, 0x78, 0x00, 0x00, 0x00, 0x02, 0x00, 0x00, 0x00,
  0xff, 0xff, 0xff, 0xff, 0x10, 0x00, 0x00, 0x00, 0x40, 0xf0, 0xff, 0xff,
  0x5e, 0x00, 0x00, 0x00, 0x73, 0x65, 0x71, 0x75, 0x65, 0x6e, 0x74, 0x69,
  0x61, 0x6c, 0x2f, 0x73, 0x69, 0x6d, 0x70, 0x6c, 0x65, 0x5f, 0x72, 0x6e,
  0x6e, 0x2f, 0x73, 0x69, 0x6d, 0x70, 0x6c, 0x65, 0x5f, 0x72, 0x6e, 0x6e,
  0x5f, 0x63, 0x65, 0x6c, 0x6c, 0x2f, 0x4d, 0x61, 0x74, 0x4d, 0x75, 0x6c,
  0x5f, 0x32, 0x3b, 0x73, 0x65, 0x71, 0x75, 0x65, 0x6e, 0x74, 0x69, 0x61,
  0x6c, 0x2f, 0x73, 0x69, 0x6d, 0x70, 0x6c, 0x65, 0x5f, 0x72, 0x6e, 0x6e,
  0x2f, 0x73, 0x69, 0x6d, 0x70, 0x6c, 0x65, 0x5f, 0x72, 0x6e, 0x6e, 0x5f,
  0x63, 0x65, 0x6c, 0x6c, 0x2f, 0x42, 0x69, 0x61, 0x73, 0x41, 0x64, 0x64,
  0x5f, 0x31, 0x00, 0x00, 0x02, 0x00, 0x00, 0x00, 0x01, 0x00, 0x00, 0x00,
  0x10, 0x00, 0x00, 0x00, 0x5e, 0xf1, 0xff, 0xff, 0x00, 0x00, 0x00, 0x01,
  0x14, 0x00, 0x00, 0x00, 0x1c, 0x00, 0x00, 0x00, 0x1c, 0x00, 0x00, 0x00,
  0x26, 0x00, 0x00, 0x00, 0x78, 0x00, 0x00, 0x00, 0x02, 0x00, 0x00, 0x00,
  0xff, 0xff, 0xff, 0xff, 0x10, 0x00, 0x00, 0x00, 0xdc, 0xf0, 0xff, 0xff,
  0x5f, 0x00, 0x00, 0x00, 0x73, 0x65, 0x71, 0x75, 0x65, 0x6e, 0x74, 0x69,
  0x61, 0x6c, 0x2f, 0x73, 0x69, 0x6d, 0x70, 0x6c, 0x65, 0x5f, 0x72, 0x6e,
  0x6e, 0x2f, 0x73, 0x69, 0x6d, 0x70, 0x6c, 0x65, 0x5f, 0x72, 0x6e, 0x6e,
  0x5f, 0x63, 0x65, 0x6c, 0x6c, 0x2f, 0x4d, 0x61, 0x74, 0x4d, 0x75, 0x6c,
  0x5f, 0x31, 0x38, 0x3b, 0x73, 0x65, 0x71, 0x75, 0x65, 0x6e, 0x74, 0x69,
  0x61, 0x6c, 0x2f, 0x73, 0x69, 0x6d, 0x70, 0x6c, 0x65, 0x5f, 0x72, 0x6e,
  0x6e, 0x2f, 0x73, 0x69, 0x6d, 0x70, 0x6c, 0x65, 0x5f, 0x72, 0x6e, 0x6e,
  0x5f, 0x63, 0x65, 0x6c, 0x6c, 0x2f, 0x42, 0x69, 0x61, 0x73, 0x41, 0x64,
  0x64, 0x5f, 0x39, 0x00, 0x02, 0x00, 0x00, 0x00, 0x01, 0x00, 0x00, 0x00,
  0x10, 0x00, 0x00, 0x00, 0xfa, 0xf1, 0xff, 0xff, 0x00, 0x00, 0x00, 0x01,
  0x14, 0x00, 0x00, 0x00, 0x1c, 0x00, 0x00, 0x00, 0x1c, 0x00, 0x00, 0x00,
  0x25, 0x00, 0x00, 0x00, 0x78, 0x00, 0x00, 0x00, 0x02, 0x00, 0x00, 0x00,
  0xff, 0xff, 0xff, 0xff, 0x10, 0x00, 0x00, 0x00, 0x78, 0xf1, 0xff, 0xff,
  0x5f, 0x00, 0x00, 0x00, 0x73, 0x65, 0x71, 0x75, 0x65, 0x6e, 0x74, 0x69,
  0x61, 0x6c, 0x2f, 0x73, 0x69, 0x6d, 0x70, 0x6c, 0x65, 0x5f, 0x72, 0x6e,
  0x6e, 0x2f, 0x73, 0x69, 0x6d, 0x70, 0x6c, 0x65, 0x5f, 0x72, 0x6e, 0x6e,
  0x5f, 0x63, 0x65, 0x6c, 0x6c, 0x2f, 0x4d, 0x61, 0x74, 0x4d, 0x75, 0x6c,
  0x5f, 0x31, 0x36, 0x3b, 0x73, 0x65, 0x71, 0x75, 0x65, 0x6e, 0x74, 0x69,
  0x61, 0x6c, 0x2f, 0x73, 0x69, 0x6d, 0x70, 0x6c, 0x65, 0x5f, 0x72, 0x6e,
  0x6e, 0x2f, 0x73, 0x69, 0x6d, 0x70, 0x6c, 0x65, 0x5f, 0x72, 0x6e, 0x6e,
  0x5f, 0x63, 0x65, 0x6c, 0x6c, 0x2f, 0x42, 0x69, 0x61, 0x73, 0x41, 0x64,
  0x64, 0x5f, 0x38, 0x00, 0x02, 0x00, 0x00, 0x00, 0x01, 0x00, 0x00, 0x00,
  0x10, 0x00, 0x00, 0x00, 0x96, 0xf2, 0xff, 0xff, 0x00, 0x00, 0x00, 0x01,
  0x14, 0x00, 0x00, 0x00, 0x1c, 0x00, 0x00, 0x00, 0x1c, 0x00, 0x00, 0x00,
  0x24, 0x00, 0x00, 0x00, 0x78, 0x00, 0x00, 0x00, 0x02, 0x00, 0x00, 0x00,
  0xff, 0xff, 0xff, 0xff, 0x10, 0x00, 0x00, 0x00, 0x14, 0xf2, 0xff, 0xff,
  0x5f, 0x00, 0x00, 0x00, 0x73, 0x65, 0x71, 0x75, 0x65, 0x6e, 0x74, 0x69,
  0x61, 0x6c, 0x2f, 0x73, 0x69, 0x6d, 0x70, 0x6c, 0x65, 0x5f, 0x72, 0x6e,
  0x6e, 0x2f, 0x73, 0x69, 0x6d, 0x70, 0x6c, 0x65, 0x5f, 0x72, 0x6e, 0x6e,
  0x5f, 0x63, 0x65, 0x6c, 0x6c, 0x2f, 0x4d, 0x61, 0x74, 0x4d, 0x75, 0x6c,
  0x5f, 0x31, 0x34, 0x3b, 0x73, 0x65, 0x71, 0x75, 0x65, 0x6e, 0x74, 0x69,
  0x61, 0x6c, 0x2f, 0x73, 0x69, 0x6d, 0x70, 0x6c, 0x65, 0x5f, 0x72, 0x6e,
  0x6e, 0x2f, 0x73, 0x69, 0x6d, 0x70, 0x6c, 0x65, 0x5f, 0x72, 0x6e, 0x6e,
  0x5f, 0x63, 0x65, 0x6c, 0x6c, 0x2f, 0x42, 0x69, 0x61, 0x73, 0x41, 0x64,
  0x64, 0x5f, 0x37, 0x00, 0x02, 0x00, 0x00, 0x00, 0x01, 0x00, 0x00, 0x00,
  0x10, 0x00, 0x00, 0x00, 0x32, 0xf3, 0xff, 0xff, 0x00, 0x00, 0x00, 0x01,
  0x14, 0x00, 0x00, 0x00, 0x1c, 0x00, 0x00, 0x00, 0x1c, 0x00, 0x00, 0x00,
  0x23, 0x00, 0x00, 0x00, 0x78, 0x00, 0x00, 0x00, 0x02, 0x00, 0x00, 0x00,
  0xff, 0xff, 0xff, 0xff, 0x10, 0x00, 0x00, 0x00, 0xb0, 0xf2, 0xff, 0xff,
  0x5f, 0x00, 0x00, 0x00, 0x73, 0x65, 0x71, 0x75, 0x65, 0x6e, 0x74, 0x69,
  0x61, 0x6c, 0x2f, 0x73, 0x69, 0x6d, 0x70, 0x6c, 0x65, 0x5f, 0x72, 0x6e,
  0x6e, 0x2f, 0x73, 0x69, 0x6d, 0x70, 0x6c, 0x65, 0x5f, 0x72, 0x6e, 0x6e,
  0x5f, 0x63, 0x65, 0x6c, 0x6c, 0x2f, 0x4d, 0x61, 0x74, 0x4d, 0x75, 0x6c,
  0x5f, 0x31, 0x32, 0x3b, 0x73, 0x65, 0x71, 0x75, 0x65, 0x6e, 0x74, 0x69,
  0x61, 0x6c, 0x2f, 0x73, 0x69, 0x6d, 0x70, 0x6c, 0x65, 0x5f, 0x72, 0x6e,
  0x6e, 0x2f, 0x73, 0x69, 0x6d, 0x70, 0x6c, 0x65, 0x5f, 0x72, 0x6e, 0x6e,
  0x5f, 0x63, 0x65, 0x6c, 0x6c, 0x2f, 0x42, 0x69, 0x61, 0x73, 0x41, 0x64,
  0x64, 0x5f, 0x36, 0x00, 0x02, 0x00, 0x00, 0x00, 0x01, 0x00, 0x00, 0x00,
  0x10, 0x00, 0x00, 0x00, 0xce, 0xf3, 0xff, 0xff, 0x00, 0x00, 0x00, 0x01,
  0x14, 0x00, 0x00, 0x00, 0x1c, 0x00, 0x00, 0x00, 0x1c, 0x00, 0x00, 0x00,
  0x22, 0x00, 0x00, 0x00, 0x78, 0x00, 0x00, 0x00, 0x02, 0x00, 0x00, 0x00,
  0xff, 0xff, 0xff, 0xff, 0x10, 0x00, 0x00, 0x00, 0x4c, 0xf3, 0xff, 0xff,
  0x5f, 0x00, 0x00, 0x00, 0x73, 0x65, 0x71, 0x75, 0x65, 0x6e, 0x74, 0x69,
  0x61, 0x6c, 0x2f, 0x73, 0x69, 0x6d, 0x70, 0x6c, 0x65, 0x5f, 0x72, 0x6e,
  0x6e, 0x2f, 0x73, 0x69, 0x6d, 0x70, 0x6c, 0x65, 0x5f, 0x72, 0x6e, 0x6e,
  0x5f, 0x63, 0x65, 0x6c, 0x6c, 0x2f, 0x4d, 0x61, 0x74, 0x4d, 0x75, 0x6c,
  0x5f, 0x31, 0x30, 0x3b, 0x73, 0x65, 0x71, 0x75, 0x65, 0x6e, 0x74, 0x69,
  0x61, 0x6c, 0x2f, 0x73, 0x69, 0x6d, 0x70, 0x6c, 0x65, 0x5f, 0x72, 0x6e,
  0x6e, 0x2f, 0x73, 0x69, 0x6d, 0x70, 0x6c, 0x65, 0x5f, 0x72, 0x6e, 0x6e,
  0x5f, 0x63, 0x65, 0x6c, 0x6c, 0x2f, 0x42, 0x69, 0x61, 0x73, 0x41, 0x64,
  0x64, 0x5f, 0x35, 0x00, 0x02, 0x00, 0x00, 0x00, 0x01, 0x00, 0x00, 0x00,
  0x10, 0x00, 0x00, 0x00, 0x6a, 0xf4, 0xff, 0xff, 0x00, 0x00, 0x00, 0x01,
  0x14, 0x00, 0x00, 0x00, 0x1c, 0x00, 0x00, 0x00, 0x1c, 0x00, 0x00, 0x00,
  0x21, 0x00, 0x00, 0x00, 0x48, 0x00, 0x00, 0x00, 0x02, 0x00, 0x00, 0x00,
  0xff, 0xff, 0xff, 0xff, 0x10, 0x00, 0x00, 0x00, 0xe8, 0xf3, 0xff, 0xff,
  0x2e, 0x00, 0x00, 0x00, 0x73, 0x65, 0x71, 0x75, 0x65, 0x6e, 0x74, 0x69,
  0x61, 0x6c, 0x2f, 0x73, 0x69, 0x6d, 0x70, 0x6c, 0x65, 0x5f, 0x72, 0x6e,
  0x6e, 0x2f, 0x73, 0x69, 0x6d, 0x70, 0x6c, 0x65, 0x5f, 0x72, 0x6e, 0x6e,
  0x5f, 0x63, 0x65, 0x6c, 0x6c, 0x2f, 0x4d, 0x61, 0x74, 0x4d, 0x75, 0x6c,
  0x5f, 0x33, 0x00, 0x00, 0x02, 0x00, 0x00, 0x00, 0x01, 0x00, 0x00, 0x00,
  0x10, 0x00, 0x00, 0x00, 0xd6, 0xf4, 0xff, 0xff, 0x00, 0x00, 0x00, 0x01,
  0x14, 0x00, 0x00, 0x00, 0x1c, 0x00, 0x00, 0x00, 0x1c, 0x00, 0x00, 0x00,
  0x20, 0x00, 0x00, 0x00, 0x44, 0x00, 0x00, 0x00, 0x02, 0x00, 0x00, 0x00,
  0xff, 0xff, 0xff, 0xff, 0x10, 0x00, 0x00, 0x00, 0x54, 0xf4, 0xff, 0xff,
  0x2a, 0x00, 0x00, 0x00, 0x73, 0x65, 0x71, 0x75, 0x65, 0x6e, 0x74, 0x69,
  0x61, 0x6c, 0x2f, 0x73, 0x69, 0x6d, 0x70, 0x6c, 0x65, 0x5f, 0x72, 0x6e,
  0x6e, 0x2f, 0x73, 0x69, 0x6d, 0x70, 0x6c, 0x65, 0x5f, 0x72, 0x6e, 0x6e,
  0x5f, 0x63, 0x65, 0x6c, 0x6c, 0x2f, 0x54, 0x61, 0x6e, 0x68, 0x00, 0x00,
  0x02, 0x00, 0x00, 0x00, 0x01, 0x00, 0x00, 0x00, 0x10, 0x00, 0x00, 0x00,
  0x3e, 0xf5, 0xff, 0xff, 0x00, 0x00, 0x00, 0x01, 0x14, 0x00, 0x00, 0x00,
  0x1c, 0x00, 0x00, 0x00, 0x1c, 0x00, 0x00, 0x00, 0x1f, 0x00, 0x00, 0x00,
  0x44, 0x00, 0x00, 0x00, 0x02, 0x00, 0x00, 0x00, 0xff, 0xff, 0xff, 0xff,
  0x10, 0x00, 0x00, 0x00, 0xbc, 0xf4, 0xff, 0xff, 0x29, 0x00, 0x00, 0x00,
  0x73, 0x65, 0x71, 0x75, 0x65, 0x6e, 0x74, 0x69, 0x61, 0x6c, 0x2f, 0x73,
  0x69, 0x6d, 0x70, 0x6c, 0x65, 0x5f, 0x72, 0x6e, 0x6e, 0x2f, 0x73, 0x69,
  0x6d, 0x70, 0x6c, 0x65, 0x5f, 0x72, 0x6e, 0x6e, 0x5f, 0x63, 0x65, 0x6c,
  0x6c, 0x2f, 0x61, 0x64, 0x64, 0x00, 0x00, 0x00, 0x02, 0x00, 0x00, 0x00,
  0x01, 0x00, 0x00, 0x00, 0x10, 0x00, 0x00, 0x00, 0xa6, 0xf5, 0xff, 0xff,
  0x00, 0x00, 0x00, 0x01, 0x14, 0x00, 0x00, 0x00, 0x1c, 0x00, 0x00, 0x00,
  0x1c, 0x00, 0x00, 0x00, 0x1e, 0x00, 0x00, 0x00, 0x74, 0x00, 0x00, 0x00,
  0x02, 0x00, 0x00, 0x00, 0xff, 0xff, 0xff, 0xff, 0x10, 0x00, 0x00, 0x00,
  0x24, 0xf5, 0xff, 0xff, 0x5a, 0x00, 0x00, 0x00, 0x73, 0x65, 0x71, 0x75,
  0x65, 0x6e, 0x74, 0x69, 0x61, 0x6c, 0x2f, 0x73, 0x69, 0x6d, 0x70, 0x6c,
  0x65, 0x5f, 0x72, 0x6e, 0x6e, 0x2f, 0x73, 0x69, 0x6d, 0x70, 0x6c, 0x65,
  0x5f, 0x72, 0x6e, 0x6e, 0x5f, 0x63, 0x65, 0x6c, 0x6c, 0x2f, 0x4d, 0x61,
  0x74, 0x4d, 0x75, 0x6c, 0x3b, 0x73, 0x65, 0x71, 0x75, 0x65, 0x6e, 0x74,
  0x69, 0x61, 0x6c, 0x2f, 0x73, 0x69, 0x6d, 0x70, 0x6c, 0x65, 0x5f, 0x72,
  0x6e, 0x6e, 0x2f, 0x73, 0x69, 0x6d, 0x70, 0x6c, 0x65, 0x5f, 0x72, 0x6e,
  0x6e, 0x5f, 0x63, 0x65, 0x6c, 0x6c, 0x2f, 0x42, 0x69, 0x61, 0x73, 0x41,
  0x64, 0x64, 0x00, 0x00, 0x02, 0x00, 0x00, 0x00, 0x01, 0x00, 0x00, 0x00,
  0x10, 0x00, 0x00, 0x00, 0x3e, 0xf6, 0xff, 0xff, 0x00, 0x00, 0x00, 0x01,
  0x14, 0x00, 0x00, 0x00, 0x1c, 0x00, 0x00, 0x00, 0x1c, 0x00, 0x00, 0x00,
  0x1d, 0x00, 0x00, 0x00, 0x48, 0x00, 0x00, 0x00, 0x02, 0x00, 0x00, 0x00,
  0xff, 0xff, 0xff, 0xff, 0x10, 0x00, 0x00, 0x00, 0xbc, 0xf5, 0xff, 0xff,
  0x2f, 0x00, 0x00, 0x00, 0x73, 0x65, 0x71, 0x75, 0x65, 0x6e, 0x74, 0x69,
  0x61, 0x6c, 0x2f, 0x73, 0x69, 0x6d, 0x70, 0x6c, 0x65, 0x5f, 0x72, 0x6e,
  0x6e, 0x2f, 0x73, 0x69, 0x6d, 0x70, 0x6c, 0x65, 0x5f, 0x72, 0x6e, 0x6e,
  0x5f, 0x63, 0x65, 0x6c, 0x6c, 0x2f, 0x4d, 0x61, 0x74, 0x4d, 0x75, 0x6c,
  0x5f, 0x31, 0x31, 0x00, 0x02, 0x00, 0x00, 0x00, 0x01, 0x00, 0x00, 0x00,
  0x10, 0x00, 0x00, 0x00, 0xaa, 0xf6, 0xff, 0xff, 0x00, 0x00, 0x00, 0x01,
  0x14, 0x00, 0x00, 0x00, 0x1c, 0x00, 0x00, 0x00, 0x1c, 0x00, 0x00, 0x00,
  0x1c, 0x00, 0x00, 0x00, 0x34, 0x00, 0x00, 0x00, 0x02, 0x00, 0x00, 0x00,
  0xff, 0xff, 0xff, 0xff, 0x10, 0x00, 0x00, 0x00, 0x28, 0xf6, 0xff, 0xff,
  0x1b, 0x00, 0x00, 0x00, 0x73, 0x65, 0x71, 0x75, 0x65, 0x6e, 0x74, 0x69,
  0x61, 0x6c, 0x2f, 0x73, 0x69, 0x6d, 0x70, 0x6c, 0x65, 0x5f, 0x72, 0x6e,
  0x6e, 0x2f, 0x7a, 0x65, 0x72, 0x6f, 0x73, 0x00, 0x02, 0x00, 0x00, 0x00,
  0x01, 0x00, 0x00, 0x00, 0x10, 0x00, 0x00, 0x00, 0x8e, 0xf8, 0xff, 0xff,
  0x00, 0x00, 0x00, 0x01, 0x14, 0x00, 0x00, 0x00, 0x14, 0x00, 0x00, 0x00,
  0x1b, 0x00, 0x00, 0x00, 0x00, 0x00, 0x00, 0x02, 0x30, 0x00, 0x00, 0x00,
  0x74, 0xf6, 0xff, 0xff, 0x22, 0x00, 0x00, 0x00, 0x73, 0x65, 0x71, 0x75,
  0x65, 0x6e, 0x74, 0x69, 0x61, 0x6c, 0x2f, 0x73, 0x69, 0x6d, 0x70, 0x6c,
  0x65, 0x5f, 0x72, 0x6e, 0x6e, 0x2f, 0x7a, 0x65, 0x72, 0x6f, 0x73, 0x2f,
  0x70, 0x61, 0x63, 0x6b, 0x65, 0x64, 0x00, 0x00, 0x01, 0x00, 0x00, 0x00,
  0x02, 0x00, 0x00, 0x00, 0x52, 0xf7, 0xff, 0xff, 0x00, 0x00, 0x00, 0x01,
  0x14, 0x00, 0x00, 0x00, 0x1c, 0x00, 0x00, 0x00, 0x1c, 0x00, 0x00, 0x00,
  0x1a, 0x00, 0x00, 0x00, 0x38, 0x00, 0x00, 0x00, 0x02, 0x00, 0x00, 0x00,
  0xff, 0xff, 0xff, 0xff, 0x01, 0x00, 0x00, 0x00, 0xd0, 0xf6, 0xff, 0xff,
  0x1e, 0x00, 0x00, 0x00, 0x73, 0x65, 0x71, 0x75, 0x65, 0x6e, 0x74, 0x69,
  0x61, 0x6c, 0x2f, 0x73, 0x69, 0x6d, 0x70, 0x6c, 0x65, 0x5f, 0x72, 0x6e,
  0x6e, 0x2f, 0x75, 0x6e, 0x73, 0x74, 0x61, 0x63, 0x6b, 0x39, 0x00, 0x00,
  0x02, 0x00, 0x00, 0x00, 0x01, 0x00, 0x00, 0x00, 0x01, 0x00, 0x00, 0x00,
  0xae, 0xf7, 0xff, 0xff, 0x00, 0x00, 0x00, 0x01, 0x14, 0x00, 0x00, 0x00,
  0x1c, 0x00, 0x00, 0x00, 0x1c, 0x00, 0x00, 0x00, 0x19, 0x00, 0x00, 0x00,
  0x38, 0x00, 0x00, 0x00, 0x02, 0x00, 0x00, 0x00, 0xff, 0xff, 0xff, 0xff,
  0x01, 0x00, 0x00, 0x00, 0x2c, 0xf7, 0xff, 0xff, 0x1e, 0x00, 0x00, 0x00,
  0x73, 0x65, 0x71, 0x75, 0x65, 0x6e, 0x74, 0x69, 0x61, 0x6c, 0x2f, 0x73,
  0x69, 0x6d, 0x70, 0x6c, 0x65, 0x5f, 0x72, 0x6e, 0x6e, 0x2f, 0x75, 0x6e,
  0x73, 0x74, 0x61, 0x63, 0x6b, 0x38, 0x00, 0x00, 0x02, 0x00, 0x00, 0x00,
  0x01, 0x00, 0x00, 0x00, 0x01, 0x00, 0x00, 0x00, 0x0a, 0xf8, 0xff, 0xff,
  0x00, 0x00, 0x00, 0x01, 0x14, 0x00, 0x00, 0x00, 0x1c, 0x00, 0x00, 0x00,
  0x1c, 0x00, 0x00, 0x00, 0x18, 0x00, 0x00, 0x00, 0x38, 0x00, 0x00, 0x00,
  0x02, 0x00, 0x00, 0x00, 0xff, 0xff, 0xff, 0xff, 0x01, 0x00, 0x00, 0x00,
  0x88, 0xf7, 0xff, 0xff, 0x1e, 0x00, 0x00, 0x00, 0x73, 0x65, 0x71, 0x75,
  0x65, 0x6e, 0x74, 0x69, 0x61, 0x6c, 0x2f, 0x73, 0x69, 0x6d, 0x70, 0x6c,
  0x65, 0x5f, 0x72, 0x6e, 0x6e, 0x2f, 0x75, 0x6e, 0x73, 0x74, 0x61, 0x63,
  0x6b, 0x37, 0x00, 0x00, 0x02, 0x00, 0x00, 0x00, 0x01, 0x00, 0x00, 0x00,
  0x01, 0x00, 0x00, 0x00, 0x66, 0xf8, 0xff, 0xff, 0x00, 0x00, 0x00, 0x01,
  0x14, 0x00, 0x00, 0x00, 0x1c, 0x00, 0x00, 0x00, 0x1c, 0x00, 0x00, 0x00,
  0x17, 0x00, 0x00, 0x00, 0x38, 0x00, 0x00, 0x00, 0x02, 0x00, 0x00, 0x00,
  0xff, 0xff, 0xff, 0xff, 0x01, 0x00, 0x00, 0x00, 0xe4, 0xf7, 0xff, 0xff,
  0x1e, 0x00, 0x00, 0x00, 0x73, 0x65, 0x71, 0x75, 0x65, 0x6e, 0x74, 0x69,
  0x61, 0x6c, 0x2f, 0x73, 0x69, 0x6d, 0x70, 0x6c, 0x65, 0x5f, 0x72, 0x6e,
  0x6e, 0x2f, 0x75, 0x6e, 0x73, 0x74, 0x61, 0x63, 0x6b, 0x36, 0x00, 0x00,
  0x02, 0x00, 0x00, 0x00, 0x01, 0x00, 0x00, 0x00, 0x01, 0x00, 0x00, 0x00,
  0xc2, 0xf8, 0xff, 0xff, 0x00, 0x00, 0x00, 0x01, 0x14, 0x00, 0x00, 0x00,
  0x1c, 0x00, 0x00, 0x00, 0x1c, 0x00, 0x00, 0x00, 0x16, 0x00, 0x00, 0x00,
  0x38, 0x00, 0x00, 0x00, 0x02, 0x00, 0x00, 0x00, 0xff, 0xff, 0xff, 0xff,
  0x01, 0x00, 0x00, 0x00, 0x40, 0xf8, 0xff, 0xff, 0x1e, 0x00, 0x00, 0x00,
  0x73, 0x65, 0x71, 0x75, 0x65, 0x6e, 0x74, 0x69, 0x61, 0x6c, 0x2f, 0x73,
  0x69, 0x6d, 0x70, 0x6c, 0x65, 0x5f, 0x72, 0x6e, 0x6e, 0x2f, 0x75, 0x6e,
  0x73, 0x74, 0x61, 0x63, 0x6b, 0x35, 0x00, 0x00, 0x02, 0x00, 0x00, 0x00,
  0x01, 0x00, 0x00, 0x00, 0x01, 0x00, 0x00, 0x00, 0x1e, 0xf9, 0xff, 0xff,
  0x00, 0x00, 0x00, 0x01, 0x14, 0x00, 0x00, 0x00, 0x1c, 0x00, 0x00, 0x00,
  0x1c, 0x00, 0x00, 0x00, 0x15, 0x00, 0x00, 0x00, 0x38, 0x00, 0x00, 0x00,
  0x02, 0x00, 0x00, 0x00, 0xff, 0xff, 0xff, 0xff, 0x01, 0x00, 0x00, 0x00,
  0x9c, 0xf8, 0xff, 0xff, 0x1e, 0x00, 0x00, 0x00, 0x73, 0x65, 0x71, 0x75,
  0x65, 0x6e, 0x74, 0x69, 0x61, 0x6c, 0x2f, 0x73, 0x69, 0x6d, 0x70, 0x6c,
  0x65, 0x5f, 0x72, 0x6e, 0x6e, 0x2f, 0x75, 0x6e, 0x73, 0x74, 0x61, 0x63,
  0x6b, 0x34, 0x00, 0x00, 0x02, 0x00, 0x00, 0x00, 0x01, 0x00, 0x00, 0x00,
  0x01, 0x00, 0x00, 0x00, 0x7a, 0xf9, 0xff, 0xff, 0x00, 0x00, 0x00, 0x01,
  0x14, 0x00, 0x00, 0x00, 0x1c, 0x00, 0x00, 0x00, 0x1c, 0x00, 0x00, 0x00,
  0x14, 0x00, 0x00, 0x00, 0x38, 0x00, 0x00, 0x00, 0x02, 0x00, 0x00, 0x00,
  0xff, 0xff, 0xff, 0xff, 0x01, 0x00, 0x00, 0x00, 0xf8, 0xf8, 0xff, 0xff,
  0x1e, 0x00, 0x00, 0x00, 0x73, 0x65, 0x71, 0x75, 0x65, 0x6e, 0x74, 0x69,
  0x61, 0x6c, 0x2f, 0x73, 0x69, 0x6d, 0x70, 0x6c, 0x65, 0x5f, 0x72, 0x6e,
  0x6e, 0x2f, 0x75, 0x6e, 0x73, 0x74, 0x61, 0x63, 0x6b, 0x33, 0x00, 0x00,
  0x02, 0x00, 0x00, 0x00, 0x01, 0x00, 0x00, 0x00, 0x01, 0x00, 0x00, 0x00,
  0xd6, 0xf9, 0xff, 0xff, 0x00, 0x00, 0x00, 0x01, 0x14, 0x00, 0x00, 0x00,
  0x1c, 0x00, 0x00, 0x00, 0x1c, 0x00, 0x00, 0x00, 0x13, 0x00, 0x00, 0x00,
  0x38, 0x00, 0x00, 0x00, 0x02, 0x00, 0x00, 0x00, 0xff, 0xff, 0xff, 0xff,
  0x01, 0x00, 0x00, 0x00, 0x54, 0xf9, 0xff, 0xff, 0x1e, 0x00, 0x00, 0x00,
  0x73, 0x65, 0x71, 0x75, 0x65, 0x6e, 0x74, 0x69, 0x61, 0x6c, 0x2f, 0x73,
  0x69, 0x6d, 0x70, 0x6c, 0x65, 0x5f, 0x72, 0x6e, 0x6e, 0x2f, 0x75, 0x6e,
  0x73, 0x74, 0x61, 0x63, 0x6b, 0x32, 0x00, 0x00, 0x02, 0x00, 0x00, 0x00,
  0x01, 0x00, 0x00, 0x00, 0x01, 0x00, 0x00, 0x00, 0x32, 0xfa, 0xff, 0xff,
  0x00, 0x00, 0x00, 0x01, 0x14, 0x00, 0x00, 0x00, 0x1c, 0x00, 0x00, 0x00,
  0x1c, 0x00, 0x00, 0x00, 0x12, 0x00, 0x00, 0x00, 0x38, 0x00, 0x00, 0x00,
  0x02, 0x00, 0x00, 0x00, 0xff, 0xff, 0xff, 0xff, 0x01, 0x00, 0x00, 0x00,
  0xb0, 0xf9, 0xff, 0xff, 0x1e, 0x00, 0x00, 0x00, 0x73, 0x65, 0x71, 0x75,
  0x65, 0x6e, 0x74, 0x69, 0x61, 0x6c, 0x2f, 0x73, 0x69, 0x6d, 0x70, 0x6c,
  0x65, 0x5f, 0x72, 0x6e, 0x6e, 0x2f, 0x75, 0x6e, 0x73, 0x74, 0x61, 0x63,
  0x6b, 0x31, 0x00, 0x00, 0x02, 0x00, 0x00, 0x00, 0x01, 0x00, 0x00, 0x00,
  0x01, 0x00, 0x00, 0x00, 0x8e, 0xfa, 0xff, 0xff, 0x00, 0x00, 0x00, 0x01,
  0x14, 0x00, 0x00, 0x00, 0x1c, 0x00, 0x00, 0x00, 0x1c, 0x00, 0x00, 0x00,
  0x11, 0x00, 0x00, 0x00, 0x38, 0x00, 0x00, 0x00, 0x02, 0x00, 0x00, 0x00,
  0xff, 0xff, 0xff, 0xff, 0x01, 0x00, 0x00, 0x00, 0x0c, 0xfa, 0xff, 0xff,
  0x1d, 0x00, 0x00, 0x00, 0x73, 0x65, 0x71, 0x75, 0x65, 0x6e, 0x74, 0x69,
  0x61, 0x6c, 0x2f, 0x73, 0x69, 0x6d, 0x70, 0x6c, 0x65, 0x5f, 0x72, 0x6e,
  0x6e, 0x2f, 0x75, 0x6e, 0x73, 0x74, 0x61, 0x63, 0x6b, 0x00, 0x00, 0x00,
  0x02, 0x00, 0x00, 0x00, 0x01, 0x00, 0x00, 0x00, 0x01, 0x00, 0x00, 0x00,
  0xea, 0xfa, 0xff, 0xff, 0x00, 0x00, 0x00, 0x01, 0x14, 0x00, 0x00, 0x00,
  0x20, 0x00, 0x00, 0x00, 0x20, 0x00, 0x00, 0x00, 0x10, 0x00, 0x00, 0x00,
  0x3c, 0x00, 0x00, 0x00, 0x03, 0x00, 0x00, 0x00, 0x0a, 0x00, 0x00, 0x00,
  0xff, 0xff, 0xff, 0xff, 0x01, 0x00, 0x00, 0x00, 0x6c, 0xfa, 0xff, 0xff,
  0x1f, 0x00, 0x00, 0x00, 0x73, 0x65, 0x71, 0x75, 0x65, 0x6e, 0x74, 0x69,
  0x61, 0x6c, 0x2f, 0x73, 0x69, 0x6d, 0x70, 0x6c, 0x65, 0x5f, 0x72, 0x6e,
  0x6e, 0x2f, 0x74, 0x72, 0x61, 0x6e, 0x73, 0x70, 0x6f, 0x73, 0x65, 0x00,
  0x03, 0x00, 0x00, 0x00, 0x0a, 0x00, 0x00, 0x00, 0x01, 0x00, 0x00, 0x00,
  0x01, 0x00, 0x00, 0x00, 0xda, 0xfc, 0xff, 0xff, 0x00, 0x00, 0x00, 0x01,
  0x14, 0x00, 0x00, 0x00, 0x14, 0x00, 0x00, 0x00, 0x0f, 0x00, 0x00, 0x00,
  0x00, 0x00, 0x00, 0x02, 0x30, 0x00, 0x00, 0x00, 0xc0, 0xfa, 0xff, 0xff,
  0x23, 0x00, 0x00, 0x00, 0x73, 0x65, 0x71, 0x75, 0x65, 0x6e, 0x74, 0x69,
  0x61, 0x6c, 0x2f, 0x73, 0x69, 0x6d, 0x70, 0x6c, 0x65, 0x5f, 0x72, 0x6e,
  0x6e, 0x2f, 0x73, 0x74, 0x72, 0x69, 0x64, 0x65, 0x64, 0x5f, 0x73, 0x6c,
  0x69, 0x63, 0x65, 0x00, 0x00, 0x00, 0x00, 0x00, 0x26, 0xfd, 0xff, 0xff,
  0x00, 0x00, 0x00, 0x01, 0x14, 0x00, 0x00, 0x00, 0x14, 0x00, 0x00, 0x00,
  0x0e, 0x00, 0x00, 0x00, 0x00, 0x00, 0x00, 0x02, 0x28, 0x00, 0x00, 0x00,
  0x0c, 0xfb, 0xff, 0xff, 0x1b, 0x00, 0x00, 0x00, 0x73, 0x65, 0x71, 0x75,
  0x65, 0x6e, 0x74, 0x69, 0x61, 0x6c, 0x2f, 0x73, 0x69, 0x6d, 0x70, 0x6c,
  0x65, 0x5f, 0x72, 0x6e, 0x6e, 0x2f, 0x53, 0x68, 0x61, 0x70, 0x65, 0x00,
  0x01, 0x00, 0x00, 0x00, 0x03, 0x00, 0x00, 0x00, 0x62, 0xfc, 0xff, 0xff,
  0x00, 0x00, 0x00, 0x01, 0x10, 0x00, 0x00, 0x00, 0x10, 0x00, 0x00, 0x00,
  0x0d, 0x00, 0x00, 0x00, 0x28, 0x00, 0x00, 0x00, 0x50, 0xfb, 0xff, 0xff,
  0x19, 0x00, 0x00, 0x00, 0x73, 0x65, 0x71, 0x75, 0x65, 0x6e, 0x74, 0x69,
  0x61, 0x6c, 0x2f, 0x64, 0x65, 0x6e, 0x73, 0x65, 0x5f, 0x31, 0x2f, 0x4d,
  0x61, 0x74, 0x4d, 0x75, 0x6c, 0x00, 0x00, 0x00, 0x02, 0x00, 0x00, 0x00,
  0x01, 0x00, 0x00, 0x00, 0x08, 0x00, 0x00, 0x00, 0xaa, 0xfc, 0xff, 0xff,
  0x00, 0x00, 0x00, 0x01, 0x10, 0x00, 0x00, 0x00, 0x10, 0x00, 0x00, 0x00,
  0x0c, 0x00, 0x00, 0x00, 0x24, 0x00, 0x00, 0x00, 0x98, 0xfb, 0xff, 0xff,
  0x17, 0x00, 0x00, 0x00, 0x73, 0x65, 0x71, 0x75, 0x65, 0x6e, 0x74, 0x69,
  0x61, 0x6c, 0x2f, 0x64, 0x65, 0x6e, 0x73, 0x65, 0x2f, 0x4d, 0x61, 0x74,
  0x4d, 0x75, 0x6c, 0x00, 0x02, 0x00, 0x00, 0x00, 0x08, 0x00, 0x00, 0x00,
  0x10, 0x00, 0x00, 0x00, 0xee, 0xfc, 0xff, 0xff, 0x00, 0x00, 0x00, 0x01,
  0x10, 0x00, 0x00, 0x00, 0x10, 0x00, 0x00, 0x00, 0x0b, 0x00, 0x00, 0x00,
  0x3c, 0x00, 0x00, 0x00, 0xdc, 0xfb, 0xff, 0xff, 0x2e, 0x00, 0x00, 0x00,
  0x73, 0x65, 0x71, 0x75, 0x65, 0x6e, 0x74, 0x69, 0x61, 0x6c, 0x2f, 0x73,
  0x69, 0x6d, 0x70, 0x6c, 0x65, 0x5f, 0x72, 0x6e, 0x6e, 0x2f, 0x73, 0x69,
  0x6d, 0x70, 0x6c, 0x65, 0x5f, 0x72, 0x6e, 0x6e, 0x5f, 0x63, 0x65, 0x6c,
  0x6c, 0x2f, 0x4d, 0x61, 0x74, 0x4d, 0x75, 0x6c, 0x5f, 0x38, 0x00, 0x00,
  0x02, 0x00, 0x00, 0x00, 0x10, 0x00, 0x00, 0x00, 0x01, 0x00, 0x00, 0x00,
  0x4a, 0xfd, 0xff, 0xff, 0x00, 0x00, 0x00, 0x01, 0x10, 0x00, 0x00, 0x00,
  0x10, 0x00, 0x00, 0x00, 0x0a, 0x00, 0x00, 0x00, 0x3c, 0x00, 0x00, 0x00,
  0x38, 0xfc, 0xff, 0xff, 0x2f, 0x00, 0x00, 0x00, 0x73, 0x65, 0x71, 0x75,
  0x65, 0x6e, 0x74, 0x69, 0x61, 0x6c, 0x2f, 0x73, 0x69, 0x6d, 0x70, 0x6c,
  0x65, 0x5f, 0x72, 0x6e, 0x6e, 0x2f, 0x73, 0x69, 0x6d, 0x70, 0x6c, 0x65,
  0x5f, 0x72, 0x6e, 0x6e, 0x5f, 0x63, 0x65, 0x6c, 0x6c, 0x2f, 0x4d, 0x61,
  0x74, 0x4d, 0x75, 0x6c, 0x5f, 0x31, 0x39, 0x00, 0x02, 0x00, 0x00, 0x00,
  0x10, 0x00, 0x00, 0x00, 0x10, 0x00, 0x00, 0x00, 0xb2, 0xfe, 0xff, 0xff,
  0x00, 0x00, 0x00, 0x01, 0x14, 0x00, 0x00, 0x00, 0x14, 0x00, 0x00, 0x00,
  0x06, 0x00, 0x00, 0x00, 0x00, 0x00, 0x00, 0x02, 0x38, 0x00, 0x00, 0x00,
  0x98, 0xfc, 0xff, 0xff, 0x29, 0x00, 0x00, 0x00, 0x73, 0x65, 0x71, 0x75,
  0x65, 0x6e, 0x74, 0x69, 0x61, 0x6c, 0x2f, 0x73, 0x69, 0x6d, 0x70, 0x6c,
  0x65, 0x5f, 0x72, 0x6e, 0x6e, 0x2f, 0x73, 0x74, 0x72, 0x69, 0x64, 0x65,
  0x64, 0x5f, 0x73, 0x6c, 0x69, 0x63, 0x65, 0x2f, 0x73, 0x74, 0x61, 0x63,
  0x6b, 0x00, 0x00, 0x00, 0x01, 0x00, 0x00, 0x00, 0x01, 0x00, 0x00, 0x00,
  0x0a, 0xff, 0xff, 0xff, 0x00, 0x00, 0x00, 0x01, 0x14, 0x00, 0x00, 0x00,
  0x14, 0x00, 0x00, 0x00, 0x08, 0x00, 0x00, 0x00, 0x00, 0x00, 0x00, 0x02,
  0x38, 0x00, 0x00, 0x00, 0xf0, 0xfc, 0xff, 0xff, 0x2b, 0x00, 0x00, 0x00,
  0x73, 0x65, 0x71, 0x75, 0x65, 0x6e, 0x74, 0x69, 0x61, 0x6c, 0x2f, 0x73,
  0x69, 0x6d, 0x70, 0x6c, 0x65, 0x5f, 0x72, 0x6e, 0x6e, 0x2f, 0x73, 0x74,
  0x72, 0x69, 0x64, 0x65, 0x64, 0x5f, 0x73, 0x6c, 0x69, 0x63, 0x65, 0x2f,
  0x73, 0x74, 0x61, 0x63, 0x6b, 0x5f, 0x31, 0x00, 0x01, 0x00, 0x00, 0x00,
  0x01, 0x00, 0x00, 0x00, 0x62, 0xff, 0xff, 0xff, 0x00, 0x00, 0x00, 0x01,
  0x14, 0x00, 0x00, 0x00, 0x14, 0x00, 0x00, 0x00, 0x07, 0x00, 0x00, 0x00,
  0x00, 0x00, 0x00, 0x02, 0x34, 0x00, 0x00, 0x00, 0x48, 0xfd, 0xff, 0xff,
  0x24, 0x00, 0x00, 0x00, 0x73, 0x65, 0x71, 0x75, 0x65, 0x6e, 0x74, 0x69,
  0x61, 0x6c, 0x2f, 0x73, 0x69, 0x6d, 0x70, 0x6c, 0x65, 0x5f, 0x72, 0x6e,
  0x6e, 0x2f, 0x74, 0x72, 0x61, 0x6e, 0x73, 0x70, 0x6f, 0x73, 0x65, 0x2f,
  0x70, 0x65, 0x72, 0x6d, 0x00, 0x00, 0x00, 0x00, 0x01, 0x00, 0x00, 0x00,
  0x03, 0x00, 0x00, 0x00, 0xaa, 0xfe, 0xff, 0xff, 0x00, 0x00, 0x00, 0x01,
  0x10, 0x00, 0x00, 0x00, 0x10, 0x00, 0x00, 0x00, 0x06, 0x00, 0x00, 0x00,
  0x30, 0x00, 0x00, 0x00, 0x98, 0xfd, 0xff, 0xff, 0x21, 0x00, 0x00, 0x00,
  0x73, 0x65, 0x71, 0x75, 0x65, 0x6e, 0x74, 0x69, 0x61, 0x6c, 0x2f, 0x73,
  0x69, 0x6d, 0x70, 0x6c, 0x65, 0x5f, 0x72, 0x6e, 0x6e, 0x2f, 0x7a, 0x65,
  0x72, 0x6f, 0x73, 0x2f, 0x43, 0x6f, 0x6e, 0x73, 0x74, 0x00, 0x00, 0x00,
  0x00, 0x00, 0x00, 0x00, 0x00, 0x00, 0x16, 0x00, 0x1c, 0x00, 0x18, 0x00,
  0x17, 0x00, 0x10, 0x00, 0x0c, 0x00, 0x08, 0x00, 0x00, 0x00, 0x00, 0x00,
  0x00, 0x00, 0x07, 0x00, 0x16, 0x00, 0x00, 0x00, 0x00, 0x00, 0x00, 0x01,
  0x14, 0x00, 0x00, 0x00, 0x14, 0x00, 0x00, 0x00, 0x05, 0x00, 0x00, 0x00,
  0x00, 0x00, 0x00, 0x02, 0x34, 0x00, 0x00, 0x00, 0xfc, 0xfd, 0xff, 0xff,
  0x24, 0x00, 0x00, 0x00, 0x73, 0x65, 0x71, 0x75, 0x65, 0x6e, 0x74, 0x69,
  0x61, 0x6c, 0x2f, 0x73, 0x69, 0x6d, 0x70, 0x6c, 0x65, 0x5f, 0x72, 0x6e,
  0x6e, 0x2f, 0x7a, 0x65, 0x72, 0x6f, 0x73, 0x2f, 0x70, 0x61, 0x63, 0x6b,
  0x65, 0x64, 0x2f, 0x31, 0x00, 0x00, 0x00, 0x00, 0x00, 0x00, 0x00, 0x00,
  0x5a, 0xff, 0xff, 0xff, 0x00, 0x00, 0x00, 0x01, 0x10, 0x00, 0x00, 0x00,
  0x10, 0x00, 0x00, 0x00, 0x04, 0x00, 0x00, 0x00, 0x38, 0x00, 0x00, 0x00,
  0x48, 0xfe, 0xff, 0xff, 0x29, 0x00, 0x00, 0x00, 0x73, 0x65, 0x71, 0x75,
  0x65, 0x6e, 0x74, 0x69, 0x61, 0x6c, 0x2f, 0x64, 0x65, 0x6e, 0x73, 0x65,
  0x5f, 0x31, 0x2f, 0x42, 0x69, 0x61, 0x73, 0x41, 0x64, 0x64, 0x2f, 0x52,
  0x65, 0x61, 0x64, 0x56, 0x61, 0x72, 0x69, 0x61, 0x62, 0x6c, 0x65, 0x4f,
  0x70, 0x00, 0x00, 0x00, 0x01, 0x00, 0x00, 0x00, 0x01, 0x00, 0x00, 0x00,
  0xae, 0xff, 0xff, 0xff, 0x00, 0x00, 0x00, 0x01, 0x10, 0x00, 0x00, 0x00,
  0x10, 0x00, 0x00, 0x00, 0x03, 0x00, 0x00, 0x00, 0x34, 0x00, 0x00, 0x00,
  0x9c, 0xfe, 0xff, 0xff, 0x27, 0x00, 0x00, 0x00, 0x73, 0x65, 0x71, 0x75,
  0x65, 0x6e, 0x74, 0x69, 0x61, 0x6c, 0x2f, 0x64, 0x65, 0x6e, 0x73, 0x65,
  0x2f, 0x42, 0x69, 0x61, 0x73, 0x41, 0x64, 0x64, 0x2f, 0x52, 0x65, 0x61,
  0x64, 0x56, 0x61, 0x72, 0x69, 0x61, 0x62, 0x6c, 0x65, 0x4f, 0x70, 0x00,
  0x01, 0x00, 0x00, 0x00, 0x08, 0x00, 0x00, 0x00, 0x00, 0x00, 0x16, 0x00,
  0x18, 0x00, 0x14, 0x00, 0x00, 0x00, 0x10, 0x00, 0x0c, 0x00, 0x08, 0x00,
  0x00, 0x00, 0x00, 0x00, 0x00, 0x00, 0x07, 0x00, 0x16, 0x00, 0x00, 0x00,
  0x00, 0x00, 0x00, 0x01, 0x10, 0x00, 0x00, 0x00, 0x10, 0x00, 0x00, 0x00,
  0x02, 0x00, 0x00, 0x00, 0x4c, 0x00, 0x00, 0x00, 0x04, 0xff, 0xff, 0xff,
  0x3c, 0x00, 0x00, 0x00, 0x73, 0x65, 0x71, 0x75, 0x65, 0x6e, 0x74, 0x69,
  0x61, 0x6c, 0x2f, 0x73, 0x69, 0x6d, 0x70, 0x6c, 0x65, 0x5f, 0x72, 0x6e,
  0x6e, 0x2f, 0x73, 0x69, 0x6d, 0x70, 0x6c, 0x65, 0x5f, 0x72, 0x6e, 0x6e,
  0x5f, 0x63, 0x65, 0x6c, 0x6c, 0x2f, 0x42, 0x69, 0x61, 0x73, 0x41, 0x64,
  0x64, 0x2f, 0x52, 0x65, 0x61, 0x64, 0x56, 0x61, 0x72, 0x69, 0x61, 0x62,
  0x6c, 0x65, 0x4f, 0x70, 0x00, 0x00, 0x00, 0x00, 0x01, 0x00, 0x00, 0x00,
  0x10, 0x00, 0x00, 0x00, 0x00, 0x00, 0x16, 0x00, 0x1c, 0x00, 0x18, 0x00,
  0x00, 0x00, 0x14, 0x00, 0x10, 0x00, 0x0c, 0x00, 0x00, 0x00, 0x00, 0x00,
  0x08, 0x00, 0x07, 0x00, 0x16, 0x00, 0x00, 0x00, 0x00, 0x00, 0x00, 0x01,
  0x14, 0x00, 0x00, 0x00, 0x20, 0x00, 0x00, 0x00, 0x20, 0x00, 0x00, 0x00,
  0x01, 0x00, 0x00, 0x00, 0x38, 0x00, 0x00, 0x00, 0x03, 0x00, 0x00, 0x00,
  0xff, 0xff, 0xff, 0xff, 0x0a, 0x00, 0x00, 0x00, 0x01, 0x00, 0x00, 0x00,
  0x98, 0xff, 0xff, 0xff, 0x19, 0x00, 0x00, 0x00, 0x73, 0x65, 0x72, 0x76,
  0x69, 0x6e, 0x67, 0x5f, 0x64, 0x65, 0x66, 0x61, 0x75, 0x6c, 0x74, 0x5f,
  0x69, 0x6e, 0x70, 0x75, 0x74, 0x5f, 0x31, 0x3a, 0x30, 0x00, 0x00, 0x00,
  0x03, 0x00, 0x00, 0x00, 0x01, 0x00, 0x00, 0x00, 0x0a, 0x00, 0x00, 0x00,
  0x01, 0x00, 0x00, 0x00, 0x09, 0x00, 0x00, 0x00, 0x8c, 0x00, 0x00, 0x00,
  0x70, 0x00, 0x00, 0x00, 0x60, 0x00, 0x00, 0x00, 0x50, 0x00, 0x00, 0x00,
  0x40, 0x00, 0x00, 0x00, 0x30, 0x00, 0x00, 0x00, 0x20, 0x00, 0x00, 0x00,
  0x18, 0x00, 0x00, 0x00, 0x04, 0x00, 0x00, 0x00, 0xa4, 0xff, 0xff, 0xff,
  0x1c, 0x00, 0x00, 0x00, 0x00, 0x00, 0x00, 0x1c, 0x04, 0x00, 0x04, 0x00,
  0x04, 0x00, 0x00, 0x00, 0xb8, 0xff, 0xff, 0xff, 0x09, 0x00, 0x00, 0x00,
  0x00, 0x00, 0x00, 0x09, 0xc4, 0xff, 0xff, 0xff, 0x5e, 0x00, 0x00, 0x00,
  0x00, 0x00, 0x00, 0x5e, 0xd0, 0xff, 0xff, 0xff, 0x53, 0x00, 0x00, 0x00,
  0x00, 0x00, 0x00, 0x53, 0xdc, 0xff, 0xff, 0xff, 0x58, 0x00, 0x00, 0x00,
  0x00, 0x00, 0x00, 0x58, 0xe8, 0xff, 0xff, 0xff, 0x27, 0x00, 0x00, 0x00,
  0x00, 0x00, 0x00, 0x27, 0xf4, 0xff, 0xff, 0xff, 0x2d, 0x00, 0x00, 0x00,
  0x00, 0x00, 0x00, 0x2d, 0x0c, 0x00, 0x0c, 0x00, 0x0b, 0x00, 0x00, 0x00,
  0x00, 0x00, 0x04, 0x00, 0x0c, 0x00, 0x00, 0x00, 0x4d, 0x00, 0x00, 0x00,
  0x00, 0x00, 0x00, 0x4d
};
unsigned int model_tflite_len = 13360;
